{
  "version": "1.0",
  "truncation": null,
  "padding": null,
  "added_tokens": [
    {
      "id": 0,
      "content": "<pad>",
      "single_word": false,
      "lstrip": false,
      "rstrip": false,
      "normalized": false,
      "special": true
    },
    {
      "id": 1,
      "content": "<s>",
      "single_word": false,
      "lstrip": false,
      "rstrip": false,
      "normalized": false,
      "special": true
    },
    {
      "id": 2,
      "content": "</s>",
      "single_word": false,
      "lstrip": false,
      "rstrip": false,
      "normalized": false,
      "special": true
    },
    {
      "id": 3,
      "content": "<unk>",
      "single_word": false,
      "lstrip": false,
      "rstrip": false,
      "normalized": false,
      "special": true
    },
    {
      "id": 4,
      "content": "使用者：",
      "single_word": false,
      "lstrip": false,
      "rstrip": false,
      "normalized": false,
      "special": true
    },
    {
      "id": 5,
      "content": "AI：",
      "single_word": false,
      "lstrip": false,
      "rstrip": false,
      "normalized": false,
      "special": true
    },
    {
      "id": 6,
      "content": "\n",
      "single_word": false,
      "lstrip": false,
      "rstrip": false,
      "normalized": false,
      "special": true
    },
    {
      "id": 8131,
      "content": "[問]",
      "single_word": false,
      "lstrip": false,
      "rstrip": false,
      "normalized": false,
      "special": true
    },
    {
      "id": 8132,
      "content": "[答]",
      "single_word": false,
      "lstrip": false,
      "rstrip": false,
      "normalized": false,
      "special": true
    }
  ],
  "normalizer": null,
  "pre_tokenizer": {
    "type": "Whitespace"
  },
  "post_processor": null,
  "decoder": null,
  "model": {
    "type": "BPE",
    "dropout": null,
    "unk_token": null,
    "continuing_subword_prefix": null,
    "end_of_word_suffix": null,
    "fuse_unk": false,
    "byte_fallback": false,
    "vocab": {
      "<pad>": 0,
      "<s>": 1,
      "</s>": 2,
      "<unk>": 3,
      "使用者：": 4,
      "AI：": 5,
      "\n": 6,
      "!": 7,
      "\"": 8,
      "#": 9,
      "$": 10,
      "%": 11,
      "&": 12,
      "'": 13,
      "(": 14,
      ")": 15,
      "*": 16,
      "+": 17,
      ",": 18,
      "-": 19,
      ".": 20,
      "/": 21,
      "0": 22,
      "1": 23,
      "2": 24,
      "3": 25,
      "4": 26,
      "5": 27,
      "6": 28,
      "7": 29,
      "8": 30,
      "9": 31,
      ":": 32,
      "<": 33,
      "=": 34,
      ">": 35,
      "?": 36,
      "@": 37,
      "A": 38,
      "B": 39,
      "C": 40,
      "D": 41,
      "E": 42,
      "F": 43,
      "G": 44,
      "H": 45,
      "I": 46,
      "J": 47,
      "K": 48,
      "L": 49,
      "M": 50,
      "N": 51,
      "O": 52,
      "P": 53,
      "Q": 54,
      "R": 55,
      "S": 56,
      "T": 57,
      "U": 58,
      "V": 59,
      "W": 60,
      "X": 61,
      "Y": 62,
      "Z": 63,
      "[": 64,
      "]": 65,
      "_": 66,
      "a": 67,
      "b": 68,
      "c": 69,
      "d": 70,
      "e": 71,
      "f": 72,
      "g": 73,
      "h": 74,
      "i": 75,
      "j": 76,
      "k": 77,
      "l": 78,
      "m": 79,
      "n": 80,
      "o": 81,
      "p": 82,
      "q": 83,
      "r": 84,
      "s": 85,
      "t": 86,
      "u": 87,
      "v": 88,
      "w": 89,
      "x": 90,
      "y": 91,
      "z": 92,
      "|": 93,
      "~": 94,
      "°": 95,
      "×": 96,
      "é": 97,
      "ê": 98,
      "ē": 99,
      "ū": 100,
      "Σ": 101,
      "–": 102,
      "—": 103,
      "…": 104,
      "←": 105,
      "→": 106,
      "≠": 107,
      "─": 108,
      "│": 109,
      "┌": 110,
      "┐": 111,
      "└": 112,
      "┘": 113,
      "├": 114,
      "┤": 115,
      "┬": 116,
      "┴": 117,
      "┼": 118,
      "═": 119,
      "║": 120,
      "╔": 121,
      "╗": 122,
      "╚": 123,
      "╞": 124,
      "╠": 125,
      "╡": 126,
      "╣": 127,
      "╤": 128,
      "╦": 129,
      "╩": 130,
      "╪": 131,
      "╬": 132,
      "╭": 133,
      "╮": 134,
      "╯": 135,
      "╰": 136,
      "╱": 137,
      "╲": 138,
      "╳": 139,
      "▏": 140,
      "▕": 141,
      "□": 142,
      "▲": 143,
      "△": 144,
      "◆": 145,
      "○": 146,
      "◢": 147,
      "★": 148,
      "、": 149,
      "。": 150,
      "〈": 151,
      "〉": 152,
      "《": 153,
      "》": 154,
      "「": 155,
      "」": 156,
      "【": 157,
      "】": 158,
      "〔": 159,
      "〕": 160,
      "カ": 161,
      "コ": 162,
      "ヌ": 163,
      "レ": 164,
      "・": 165,
      "ㄧ": 166,
      "一": 167,
      "丁": 168,
      "七": 169,
      "丈": 170,
      "三": 171,
      "上": 172,
      "下": 173,
      "不": 174,
      "且": 175,
      "世": 176,
      "丟": 177,
      "並": 178,
      "中": 179,
      "串": 180,
      "丸": 181,
      "主": 182,
      "久": 183,
      "之": 184,
      "乎": 185,
      "乏": 186,
      "乖": 187,
      "乘": 188,
      "九": 189,
      "乞": 190,
      "也": 191,
      "乳": 192,
      "乾": 193,
      "亂": 194,
      "了": 195,
      "予": 196,
      "事": 197,
      "二": 198,
      "于": 199,
      "互": 200,
      "五": 201,
      "井": 202,
      "些": 203,
      "亞": 204,
      "亡": 205,
      "交": 206,
      "亦": 207,
      "享": 208,
      "京": 209,
      "亭": 210,
      "亮": 211,
      "人": 212,
      "什": 213,
      "仁": 214,
      "仇": 215,
      "今": 216,
      "介": 217,
      "仍": 218,
      "仔": 219,
      "他": 220,
      "付": 221,
      "仙": 222,
      "代": 223,
      "令": 224,
      "以": 225,
      "仲": 226,
      "件": 227,
      "任": 228,
      "份": 229,
      "企": 230,
      "伊": 231,
      "伐": 232,
      "休": 233,
      "伯": 234,
      "估": 235,
      "伴": 236,
      "伸": 237,
      "似": 238,
      "佃": 239,
      "但": 240,
      "佈": 241,
      "位": 242,
      "低": 243,
      "住": 244,
      "佐": 245,
      "何": 246,
      "作": 247,
      "你": 248,
      "佬": 249,
      "佮": 250,
      "佳": 251,
      "併": 252,
      "使": 253,
      "來": 254,
      "例": 255,
      "供": 256,
      "依": 257,
      "侵": 258,
      "侶": 259,
      "便": 260,
      "係": 261,
      "促": 262,
      "俊": 263,
      "保": 264,
      "信": 265,
      "修": 266,
      "俱": 267,
      "倉": 268,
      "個": 269,
      "倍": 270,
      "們": 271,
      "倒": 272,
      "倘": 273,
      "候": 274,
      "倚": 275,
      "借": 276,
      "倫": 277,
      "值": 278,
      "假": 279,
      "偉": 280,
      "偏": 281,
      "偕": 282,
      "做": 283,
      "停": 284,
      "健": 285,
      "側": 286,
      "偵": 287,
      "偶": 288,
      "偷": 289,
      "傑": 290,
      "傘": 291,
      "備": 292,
      "傳": 293,
      "傷": 294,
      "傻": 295,
      "傾": 296,
      "僅": 297,
      "像": 298,
      "價": 299,
      "儀": 300,
      "儂": 301,
      "億": 302,
      "儘": 303,
      "償": 304,
      "優": 305,
      "儲": 306,
      "元": 307,
      "充": 308,
      "兇": 309,
      "先": 310,
      "光": 311,
      "克": 312,
      "兌": 313,
      "免": 314,
      "兒": 315,
      "入": 316,
      "內": 317,
      "全": 318,
      "兩": 319,
      "八": 320,
      "公": 321,
      "六": 322,
      "共": 323,
      "其": 324,
      "具": 325,
      "典": 326,
      "兼": 327,
      "冊": 328,
      "再": 329,
      "冒": 330,
      "冠": 331,
      "冰": 332,
      "冷": 333,
      "准": 334,
      "凌": 335,
      "凍": 336,
      "凝": 337,
      "凡": 338,
      "凱": 339,
      "凸": 340,
      "出": 341,
      "刀": 342,
      "分": 343,
      "切": 344,
      "刊": 345,
      "刑": 346,
      "列": 347,
      "初": 348,
      "判": 349,
      "別": 350,
      "利": 351,
      "刪": 352,
      "到": 353,
      "制": 354,
      "刷": 355,
      "券": 356,
      "刻": 357,
      "則": 358,
      "削": 359,
      "前": 360,
      "剛": 361,
      "剩": 362,
      "割": 363,
      "創": 364,
      "劃": 365,
      "劇": 366,
      "劉": 367,
      "劍": 368,
      "劑": 369,
      "力": 370,
      "功": 371,
      "加": 372,
      "助": 373,
      "努": 374,
      "劵": 375,
      "勁": 376,
      "勇": 377,
      "動": 378,
      "勘": 379,
      "務": 380,
      "勝": 381,
      "勞": 382,
      "募": 383,
      "勢": 384,
      "勤": 385,
      "勵": 386,
      "勻": 387,
      "勿": 388,
      "包": 389,
      "化": 390,
      "北": 391,
      "匯": 392,
      "區": 393,
      "十": 394,
      "千": 395,
      "升": 396,
      "午": 397,
      "半": 398,
      "協": 399,
      "南": 400,
      "博": 401,
      "占": 402,
      "卡": 403,
      "卦": 404,
      "印": 405,
      "危": 406,
      "即": 407,
      "卵": 408,
      "卷": 409,
      "卻": 410,
      "厚": 411,
      "原": 412,
      "去": 413,
      "參": 414,
      "又": 415,
      "叉": 416,
      "及": 417,
      "友": 418,
      "反": 419,
      "叔": 420,
      "取": 421,
      "受": 422,
      "口": 423,
      "古": 424,
      "句": 425,
      "另": 426,
      "只": 427,
      "叫": 428,
      "召": 429,
      "可": 430,
      "台": 431,
      "史": 432,
      "右": 433,
      "司": 434,
      "吃": 435,
      "各": 436,
      "合": 437,
      "吉": 438,
      "吊": 439,
      "同": 440,
      "名": 441,
      "向": 442,
      "君": 443,
      "吝": 444,
      "吞": 445,
      "否": 446,
      "吧": 447,
      "含": 448,
      "吱": 449,
      "吳": 450,
      "吵": 451,
      "吸": 452,
      "吹": 453,
      "呀": 454,
      "呆": 455,
      "呈": 456,
      "告": 457,
      "周": 458,
      "味": 459,
      "呼": 460,
      "命": 461,
      "和": 462,
      "咖": 463,
      "咬": 464,
      "哀": 465,
      "品": 466,
      "哇": 467,
      "員": 468,
      "哥": 469,
      "哦": 470,
      "哨": 471,
      "哩": 472,
      "哪": 473,
      "哭": 474,
      "哲": 475,
      "哺": 476,
      "唐": 477,
      "售": 478,
      "唯": 479,
      "唱": 480,
      "唷": 481,
      "啄": 482,
      "商": 483,
      "啊": 484,
      "問": 485,
      "啖": 486,
      "啟": 487,
      "啡": 488,
      "啦": 489,
      "善": 490,
      "喊": 491,
      "喔": 492,
      "喚": 493,
      "喜": 494,
      "喝": 495,
      "喬": 496,
      "單": 497,
      "嗆": 498,
      "嗎": 499,
      "嘆": 500,
      "嘉": 501,
      "嘗": 502,
      "嘯": 503,
      "噌": 504,
      "噓": 505,
      "器": 506,
      "噸": 507,
      "嚇": 508,
      "嚎": 509,
      "嚴": 510,
      "囂": 511,
      "囉": 512,
      "四": 513,
      "囝": 514,
      "回": 515,
      "因": 516,
      "囧": 517,
      "困": 518,
      "固": 519,
      "圈": 520,
      "國": 521,
      "圍": 522,
      "園": 523,
      "圓": 524,
      "圖": 525,
      "團": 526,
      "土": 527,
      "在": 528,
      "地": 529,
      "圾": 530,
      "址": 531,
      "均": 532,
      "坊": 533,
      "坐": 534,
      "坡": 535,
      "坤": 536,
      "坦": 537,
      "坪": 538,
      "垃": 539,
      "型": 540,
      "埋": 541,
      "城": 542,
      "埔": 543,
      "埕": 544,
      "域": 545,
      "埤": 546,
      "執": 547,
      "培": 548,
      "基": 549,
      "堂": 550,
      "堅": 551,
      "堆": 552,
      "堡": 553,
      "堪": 554,
      "報": 555,
      "場": 556,
      "塊": 557,
      "塑": 558,
      "塔": 559,
      "塗": 560,
      "塞": 561,
      "塩": 562,
      "填": 563,
      "塵": 564,
      "境": 565,
      "墊": 566,
      "增": 567,
      "墩": 568,
      "壁": 569,
      "壅": 570,
      "壓": 571,
      "壞": 572,
      "壠": 573,
      "壤": 574,
      "士": 575,
      "壽": 576,
      "夏": 577,
      "夕": 578,
      "外": 579,
      "多": 580,
      "夜": 581,
      "夠": 582,
      "夢": 583,
      "大": 584,
      "天": 585,
      "太": 586,
      "夫": 587,
      "央": 588,
      "失": 589,
      "夾": 590,
      "奇": 591,
      "奈": 592,
      "套": 593,
      "奠": 594,
      "女": 595,
      "奶": 596,
      "她": 597,
      "好": 598,
      "如": 599,
      "妃": 600,
      "妝": 601,
      "妥": 602,
      "妻": 603,
      "始": 604,
      "姑": 605,
      "姓": 606,
      "委": 607,
      "姝": 608,
      "姨": 609,
      "威": 610,
      "娃": 611,
      "娛": 612,
      "婆": 613,
      "婕": 614,
      "婚": 615,
      "婦": 616,
      "婷": 617,
      "媽": 618,
      "嫌": 619,
      "嫩": 620,
      "嬰": 621,
      "子": 622,
      "孕": 623,
      "字": 624,
      "存": 625,
      "孝": 626,
      "季": 627,
      "孤": 628,
      "孩": 629,
      "孵": 630,
      "學": 631,
      "它": 632,
      "宅": 633,
      "宇": 634,
      "守": 635,
      "安": 636,
      "完": 637,
      "宗": 638,
      "官": 639,
      "定": 640,
      "宛": 641,
      "宜": 642,
      "客": 643,
      "宣": 644,
      "室": 645,
      "害": 646,
      "宴": 647,
      "家": 648,
      "容": 649,
      "宿": 650,
      "寄": 651,
      "密": 652,
      "富": 653,
      "察": 654,
      "實": 655,
      "寧": 656,
      "審": 657,
      "寫": 658,
      "寬": 659,
      "寮": 660,
      "寵": 661,
      "寶": 662,
      "寸": 663,
      "寺": 664,
      "封": 665,
      "射": 666,
      "將": 667,
      "專": 668,
      "尊": 669,
      "尋": 670,
      "對": 671,
      "導": 672,
      "小": 673,
      "少": 674,
      "尚": 675,
      "尤": 676,
      "就": 677,
      "尺": 678,
      "尼": 679,
      "尾": 680,
      "尿": 681,
      "局": 682,
      "居": 683,
      "屆": 684,
      "屋": 685,
      "屍": 686,
      "展": 687,
      "屢": 688,
      "層": 689,
      "屬": 690,
      "屭": 691,
      "山": 692,
      "岸": 693,
      "峰": 694,
      "島": 695,
      "峻": 696,
      "崎": 697,
      "崗": 698,
      "崙": 699,
      "嶇": 700,
      "嶼": 701,
      "川": 702,
      "巢": 703,
      "工": 704,
      "左": 705,
      "巧": 706,
      "巨": 707,
      "差": 708,
      "己": 709,
      "已": 710,
      "巴": 711,
      "巷": 712,
      "巾": 713,
      "市": 714,
      "布": 715,
      "帆": 716,
      "希": 717,
      "師": 718,
      "席": 719,
      "帳": 720,
      "帶": 721,
      "常": 722,
      "幅": 723,
      "幕": 724,
      "幣": 725,
      "幫": 726,
      "干": 727,
      "平": 728,
      "年": 729,
      "幸": 730,
      "幼": 731,
      "幾": 732,
      "床": 733,
      "序": 734,
      "底": 735,
      "店": 736,
      "府": 737,
      "度": 738,
      "座": 739,
      "庫": 740,
      "庭": 741,
      "康": 742,
      "廂": 743,
      "廊": 744,
      "廚": 745,
      "廟": 746,
      "廠": 747,
      "廢": 748,
      "廣": 749,
      "廳": 750,
      "延": 751,
      "建": 752,
      "弁": 753,
      "弄": 754,
      "式": 755,
      "引": 756,
      "弟": 757,
      "弱": 758,
      "張": 759,
      "強": 760,
      "彈": 761,
      "彌": 762,
      "形": 763,
      "彩": 764,
      "影": 765,
      "役": 766,
      "往": 767,
      "征": 768,
      "待": 769,
      "很": 770,
      "律": 771,
      "後": 772,
      "徐": 773,
      "徑": 774,
      "徒": 775,
      "得": 776,
      "從": 777,
      "御": 778,
      "復": 779,
      "循": 780,
      "微": 781,
      "徵": 782,
      "德": 783,
      "心": 784,
      "必": 785,
      "忍": 786,
      "志": 787,
      "忘": 788,
      "忙": 789,
      "忠": 790,
      "快": 791,
      "念": 792,
      "忽": 793,
      "怎": 794,
      "怒": 795,
      "怕": 796,
      "怖": 797,
      "思": 798,
      "怡": 799,
      "急": 800,
      "性": 801,
      "怨": 802,
      "恍": 803,
      "恐": 804,
      "恨": 805,
      "恩": 806,
      "息": 807,
      "恰": 808,
      "悅": 809,
      "悉": 810,
      "悠": 811,
      "患": 812,
      "情": 813,
      "惑": 814,
      "惟": 815,
      "惠": 816,
      "惡": 817,
      "想": 818,
      "愈": 819,
      "意": 820,
      "愛": 821,
      "感": 822,
      "愷": 823,
      "態": 824,
      "慌": 825,
      "慎": 826,
      "慕": 827,
      "慢": 828,
      "慣": 829,
      "慧": 830,
      "慮": 831,
      "慶": 832,
      "憑": 833,
      "憤": 834,
      "憩": 835,
      "憲": 836,
      "憶": 837,
      "憾": 838,
      "懂": 839,
      "懈": 840,
      "應": 841,
      "懲": 842,
      "懶": 843,
      "懷": 844,
      "懼": 845,
      "成": 846,
      "我": 847,
      "戒": 848,
      "或": 849,
      "戚": 850,
      "截": 851,
      "戰": 852,
      "戲": 853,
      "戶": 854,
      "房": 855,
      "所": 856,
      "扇": 857,
      "手": 858,
      "才": 859,
      "打": 860,
      "托": 861,
      "扣": 862,
      "扭": 863,
      "扶": 864,
      "批": 865,
      "扼": 866,
      "找": 867,
      "承": 868,
      "技": 869,
      "把": 870,
      "投": 871,
      "抖": 872,
      "抗": 873,
      "折": 874,
      "抬": 875,
      "抱": 876,
      "抵": 877,
      "抹": 878,
      "抽": 879,
      "拆": 880,
      "拈": 881,
      "拉": 882,
      "拌": 883,
      "拍": 884,
      "拒": 885,
      "拔": 886,
      "拘": 887,
      "拚": 888,
      "招": 889,
      "括": 890,
      "拱": 891,
      "拳": 892,
      "拼": 893,
      "拾": 894,
      "拿": 895,
      "持": 896,
      "指": 897,
      "按": 898,
      "挑": 899,
      "挖": 900,
      "振": 901,
      "挽": 902,
      "捉": 903,
      "捌": 904,
      "捐": 905,
      "捕": 906,
      "捨": 907,
      "捲": 908,
      "掀": 909,
      "掃": 910,
      "掉": 911,
      "掌": 912,
      "掏": 913,
      "排": 914,
      "掘": 915,
      "掛": 916,
      "採": 917,
      "探": 918,
      "接": 919,
      "控": 920,
      "推": 921,
      "掩": 922,
      "措": 923,
      "描": 924,
      "提": 925,
      "插": 926,
      "揚": 927,
      "換": 928,
      "握": 929,
      "揪": 930,
      "揭": 931,
      "揮": 932,
      "援": 933,
      "損": 934,
      "搖": 935,
      "搜": 936,
      "搬": 937,
      "搭": 938,
      "搶": 939,
      "携": 940,
      "摘": 941,
      "摩": 942,
      "撐": 943,
      "撒": 944,
      "撞": 945,
      "撤": 946,
      "播": 947,
      "撲": 948,
      "擁": 949,
      "擇": 950,
      "擊": 951,
      "操": 952,
      "擔": 953,
      "據": 954,
      "擦": 955,
      "擬": 956,
      "擲": 957,
      "擴": 958,
      "擺": 959,
      "擾": 960,
      "攀": 961,
      "攜": 962,
      "攝": 963,
      "攤": 964,
      "支": 965,
      "收": 966,
      "改": 967,
      "攻": 968,
      "放": 969,
      "政": 970,
      "故": 971,
      "效": 972,
      "敏": 973,
      "救": 974,
      "敘": 975,
      "教": 976,
      "敢": 977,
      "散": 978,
      "敬": 979,
      "整": 980,
      "敷": 981,
      "數": 982,
      "文": 983,
      "斑": 984,
      "料": 985,
      "斤": 986,
      "斯": 987,
      "新": 988,
      "斷": 989,
      "方": 990,
      "於": 991,
      "施": 992,
      "旁": 993,
      "旅": 994,
      "旋": 995,
      "族": 996,
      "旗": 997,
      "既": 998,
      "日": 999,
      "旨": 1000,
      "早": 1001,
      "旬": 1002,
      "旺": 1003,
      "昂": 1004,
      "昌": 1005,
      "明": 1006,
      "易": 1007,
      "昔": 1008,
      "星": 1009,
      "映": 1010,
      "春": 1011,
      "昨": 1012,
      "是": 1013,
      "昱": 1014,
      "時": 1015,
      "晉": 1016,
      "晚": 1017,
      "晨": 1018,
      "景": 1019,
      "晰": 1020,
      "晶": 1021,
      "智": 1022,
      "暈": 1023,
      "暑": 1024,
      "暨": 1025,
      "暫": 1026,
      "暱": 1027,
      "暴": 1028,
      "暸": 1029,
      "曆": 1030,
      "曉": 1031,
      "曝": 1032,
      "曬": 1033,
      "更": 1034,
      "書": 1035,
      "曹": 1036,
      "曾": 1037,
      "替": 1038,
      "最": 1039,
      "會": 1040,
      "月": 1041,
      "有": 1042,
      "朋": 1043,
      "服": 1044,
      "望": 1045,
      "朝": 1046,
      "期": 1047,
      "木": 1048,
      "未": 1049,
      "末": 1050,
      "本": 1051,
      "朱": 1052,
      "朵": 1053,
      "杆": 1054,
      "李": 1055,
      "材": 1056,
      "村": 1057,
      "束": 1058,
      "東": 1059,
      "松": 1060,
      "板": 1061,
      "析": 1062,
      "枕": 1063,
      "林": 1064,
      "果": 1065,
      "枝": 1066,
      "枟": 1067,
      "架": 1068,
      "某": 1069,
      "染": 1070,
      "柔": 1071,
      "查": 1072,
      "柯": 1073,
      "柱": 1074,
      "柴": 1075,
      "校": 1076,
      "株": 1077,
      "核": 1078,
      "根": 1079,
      "格": 1080,
      "栽": 1081,
      "桅": 1082,
      "框": 1083,
      "案": 1084,
      "桌": 1085,
      "桶": 1086,
      "梁": 1087,
      "梅": 1088,
      "梓": 1089,
      "條": 1090,
      "梨": 1091,
      "梭": 1092,
      "梯": 1093,
      "械": 1094,
      "棄": 1095,
      "棉": 1096,
      "棒": 1097,
      "棟": 1098,
      "棠": 1099,
      "棧": 1100,
      "棲": 1101,
      "椅": 1102,
      "植": 1103,
      "椒": 1104,
      "椰": 1105,
      "楊": 1106,
      "楚": 1107,
      "業": 1108,
      "極": 1109,
      "概": 1110,
      "榕": 1111,
      "榮": 1112,
      "構": 1113,
      "槍": 1114,
      "樁": 1115,
      "樂": 1116,
      "樑": 1117,
      "樓": 1118,
      "標": 1119,
      "模": 1120,
      "樣": 1121,
      "樹": 1122,
      "橋": 1123,
      "機": 1124,
      "橫": 1125,
      "檔": 1126,
      "檢": 1127,
      "檬": 1128,
      "檯": 1129,
      "檸": 1130,
      "檻": 1131,
      "櫃": 1132,
      "權": 1133,
      "欠": 1134,
      "次": 1135,
      "欲": 1136,
      "欸": 1137,
      "款": 1138,
      "歉": 1139,
      "歐": 1140,
      "歡": 1141,
      "止": 1142,
      "正": 1143,
      "此": 1144,
      "步": 1145,
      "武": 1146,
      "歪": 1147,
      "歲": 1148,
      "歷": 1149,
      "歸": 1150,
      "死": 1151,
      "殊": 1152,
      "殖": 1153,
      "殘": 1154,
      "殯": 1155,
      "段": 1156,
      "殺": 1157,
      "殼": 1158,
      "殿": 1159,
      "毀": 1160,
      "母": 1161,
      "每": 1162,
      "毒": 1163,
      "比": 1164,
      "毛": 1165,
      "毫": 1166,
      "民": 1167,
      "氛": 1168,
      "氣": 1169,
      "氧": 1170,
      "水": 1171,
      "永": 1172,
      "汁": 1173,
      "求": 1174,
      "汙": 1175,
      "池": 1176,
      "污": 1177,
      "汰": 1178,
      "決": 1179,
      "汽": 1180,
      "沁": 1181,
      "沂": 1182,
      "沈": 1183,
      "沉": 1184,
      "沒": 1185,
      "沙": 1186,
      "沛": 1187,
      "河": 1188,
      "油": 1189,
      "治": 1190,
      "況": 1191,
      "法": 1192,
      "泡": 1193,
      "波": 1194,
      "注": 1195,
      "洄": 1196,
      "洋": 1197,
      "洗": 1198,
      "洛": 1199,
      "洞": 1200,
      "津": 1201,
      "洪": 1202,
      "洲": 1203,
      "活": 1204,
      "洽": 1205,
      "派": 1206,
      "流": 1207,
      "浩": 1208,
      "浪": 1209,
      "浮": 1210,
      "浴": 1211,
      "海": 1212,
      "消": 1213,
      "涉": 1214,
      "涯": 1215,
      "液": 1216,
      "涵": 1217,
      "涼": 1218,
      "淑": 1219,
      "淡": 1220,
      "淨": 1221,
      "淪": 1222,
      "深": 1223,
      "混": 1224,
      "淺": 1225,
      "添": 1226,
      "清": 1227,
      "減": 1228,
      "渡": 1229,
      "温": 1230,
      "測": 1231,
      "港": 1232,
      "游": 1233,
      "湊": 1234,
      "湖": 1235,
      "湘": 1236,
      "湯": 1237,
      "溉": 1238,
      "源": 1239,
      "準": 1240,
      "溜": 1241,
      "溝": 1242,
      "溪": 1243,
      "溫": 1244,
      "溯": 1245,
      "滅": 1246,
      "滋": 1247,
      "滑": 1248,
      "滯": 1249,
      "滷": 1250,
      "滾": 1251,
      "滿": 1252,
      "漂": 1253,
      "漏": 1254,
      "演": 1255,
      "漢": 1256,
      "漫": 1257,
      "漸": 1258,
      "潔": 1259,
      "潛": 1260,
      "潤": 1261,
      "潮": 1262,
      "澤": 1263,
      "激": 1264,
      "濃": 1265,
      "濕": 1266,
      "濟": 1267,
      "濫": 1268,
      "濱": 1269,
      "濾": 1270,
      "瀛": 1271,
      "瀰": 1272,
      "灌": 1273,
      "灣": 1274,
      "火": 1275,
      "灰": 1276,
      "炎": 1277,
      "炒": 1278,
      "炫": 1279,
      "炳": 1280,
      "炸": 1281,
      "為": 1282,
      "烈": 1283,
      "烏": 1284,
      "烘": 1285,
      "烤": 1286,
      "烹": 1287,
      "焙": 1288,
      "無": 1289,
      "焢": 1290,
      "焦": 1291,
      "然": 1292,
      "煉": 1293,
      "煌": 1294,
      "煎": 1295,
      "煙": 1296,
      "照": 1297,
      "煩": 1298,
      "熟": 1299,
      "熱": 1300,
      "燃": 1301,
      "燈": 1302,
      "燒": 1303,
      "燕": 1304,
      "營": 1305,
      "燥": 1306,
      "爆": 1307,
      "爛": 1308,
      "爬": 1309,
      "爭": 1310,
      "爵": 1311,
      "父": 1312,
      "爸": 1313,
      "爺": 1314,
      "爽": 1315,
      "牆": 1316,
      "片": 1317,
      "版": 1318,
      "牌": 1319,
      "牙": 1320,
      "牛": 1321,
      "物": 1322,
      "牲": 1323,
      "特": 1324,
      "犧": 1325,
      "犯": 1326,
      "狀": 1327,
      "狗": 1328,
      "狠": 1329,
      "狼": 1330,
      "猖": 1331,
      "猶": 1332,
      "獄": 1333,
      "獎": 1334,
      "獗": 1335,
      "獨": 1336,
      "獲": 1337,
      "玄": 1338,
      "率": 1339,
      "玉": 1340,
      "王": 1341,
      "玟": 1342,
      "玩": 1343,
      "玲": 1344,
      "玻": 1345,
      "珍": 1346,
      "珠": 1347,
      "班": 1348,
      "現": 1349,
      "球": 1350,
      "理": 1351,
      "琇": 1352,
      "琨": 1353,
      "琺": 1354,
      "瑋": 1355,
      "瑕": 1356,
      "瑞": 1357,
      "瑯": 1358,
      "瑾": 1359,
      "璀": 1360,
      "璃": 1361,
      "璋": 1362,
      "璨": 1363,
      "環": 1364,
      "瓦": 1365,
      "瓷": 1366,
      "甄": 1367,
      "甘": 1368,
      "甚": 1369,
      "甜": 1370,
      "生": 1371,
      "產": 1372,
      "甥": 1373,
      "用": 1374,
      "田": 1375,
      "由": 1376,
      "甲": 1377,
      "申": 1378,
      "男": 1379,
      "界": 1380,
      "畔": 1381,
      "留": 1382,
      "畢": 1383,
      "略": 1384,
      "番": 1385,
      "畫": 1386,
      "異": 1387,
      "當": 1388,
      "疊": 1389,
      "疏": 1390,
      "疑": 1391,
      "疫": 1392,
      "疲": 1393,
      "疾": 1394,
      "病": 1395,
      "症": 1396,
      "痕": 1397,
      "瘋": 1398,
      "瘦": 1399,
      "療": 1400,
      "癇": 1401,
      "癒": 1402,
      "癲": 1403,
      "登": 1404,
      "發": 1405,
      "白": 1406,
      "百": 1407,
      "的": 1408,
      "皆": 1409,
      "皮": 1410,
      "盆": 1411,
      "益": 1412,
      "盎": 1413,
      "盒": 1414,
      "盛": 1415,
      "盜": 1416,
      "盡": 1417,
      "監": 1418,
      "盤": 1419,
      "盪": 1420,
      "目": 1421,
      "盲": 1422,
      "直": 1423,
      "相": 1424,
      "盼": 1425,
      "省": 1426,
      "看": 1427,
      "真": 1428,
      "眷": 1429,
      "眺": 1430,
      "眼": 1431,
      "眾": 1432,
      "睛": 1433,
      "睡": 1434,
      "督": 1435,
      "瞄": 1436,
      "瞬": 1437,
      "瞻": 1438,
      "矚": 1439,
      "知": 1440,
      "短": 1441,
      "矮": 1442,
      "矯": 1443,
      "石": 1444,
      "矽": 1445,
      "砂": 1446,
      "砍": 1447,
      "研": 1448,
      "砲": 1449,
      "破": 1450,
      "碎": 1451,
      "碑": 1452,
      "碗": 1453,
      "碟": 1454,
      "碰": 1455,
      "碳": 1456,
      "確": 1457,
      "碼": 1458,
      "磨": 1459,
      "礎": 1460,
      "礙": 1461,
      "示": 1462,
      "社": 1463,
      "祈": 1464,
      "祖": 1465,
      "祝": 1466,
      "神": 1467,
      "祥": 1468,
      "票": 1469,
      "祭": 1470,
      "禁": 1471,
      "禍": 1472,
      "福": 1473,
      "禮": 1474,
      "禾": 1475,
      "秀": 1476,
      "私": 1477,
      "科": 1478,
      "秒": 1479,
      "秘": 1480,
      "租": 1481,
      "移": 1482,
      "稀": 1483,
      "稅": 1484,
      "程": 1485,
      "種": 1486,
      "稱": 1487,
      "稽": 1488,
      "稿": 1489,
      "積": 1490,
      "穩": 1491,
      "究": 1492,
      "空": 1493,
      "穿": 1494,
      "突": 1495,
      "窘": 1496,
      "窟": 1497,
      "窩": 1498,
      "竊": 1499,
      "立": 1500,
      "站": 1501,
      "竟": 1502,
      "章": 1503,
      "童": 1504,
      "端": 1505,
      "競": 1506,
      "竹": 1507,
      "笑": 1508,
      "符": 1509,
      "第": 1510,
      "筆": 1511,
      "等": 1512,
      "筊": 1513,
      "筋": 1514,
      "筍": 1515,
      "答": 1516,
      "策": 1517,
      "筱": 1518,
      "筷": 1519,
      "算": 1520,
      "管": 1521,
      "箱": 1522,
      "節": 1523,
      "範": 1524,
      "篇": 1525,
      "築": 1526,
      "篩": 1527,
      "簡": 1528,
      "簷": 1529,
      "簽": 1530,
      "籌": 1531,
      "籍": 1532,
      "籤": 1533,
      "籲": 1534,
      "米": 1535,
      "粉": 1536,
      "粒": 1537,
      "粹": 1538,
      "粽": 1539,
      "精": 1540,
      "糕": 1541,
      "糖": 1542,
      "系": 1543,
      "糾": 1544,
      "紀": 1545,
      "約": 1546,
      "紅": 1547,
      "紋": 1548,
      "納": 1549,
      "純": 1550,
      "紗": 1551,
      "紙": 1552,
      "級": 1553,
      "紛": 1554,
      "素": 1555,
      "紡": 1556,
      "索": 1557,
      "紫": 1558,
      "紮": 1559,
      "累": 1560,
      "細": 1561,
      "紹": 1562,
      "終": 1563,
      "組": 1564,
      "結": 1565,
      "絕": 1566,
      "絡": 1567,
      "給": 1568,
      "絮": 1569,
      "統": 1570,
      "絲": 1571,
      "綁": 1572,
      "經": 1573,
      "綜": 1574,
      "綠": 1575,
      "維": 1576,
      "網": 1577,
      "綴": 1578,
      "綽": 1579,
      "緊": 1580,
      "緒": 1581,
      "線": 1582,
      "緝": 1583,
      "緣": 1584,
      "編": 1585,
      "緩": 1586,
      "練": 1587,
      "緻": 1588,
      "縣": 1589,
      "縫": 1590,
      "縮": 1591,
      "縱": 1592,
      "總": 1593,
      "繁": 1594,
      "織": 1595,
      "繞": 1596,
      "繡": 1597,
      "繩": 1598,
      "繪": 1599,
      "繫": 1600,
      "繹": 1601,
      "繼": 1602,
      "續": 1603,
      "纖": 1604,
      "纜": 1605,
      "缺": 1606,
      "罐": 1607,
      "罩": 1608,
      "罪": 1609,
      "置": 1610,
      "罰": 1611,
      "署": 1612,
      "罵": 1613,
      "羅": 1614,
      "羊": 1615,
      "美": 1616,
      "群": 1617,
      "羨": 1618,
      "義": 1619,
      "羽": 1620,
      "翁": 1621,
      "習": 1622,
      "翠": 1623,
      "翻": 1624,
      "翼": 1625,
      "老": 1626,
      "考": 1627,
      "者": 1628,
      "而": 1629,
      "耍": 1630,
      "耐": 1631,
      "耕": 1632,
      "耗": 1633,
      "耳": 1634,
      "耶": 1635,
      "聆": 1636,
      "聊": 1637,
      "聖": 1638,
      "聘": 1639,
      "聚": 1640,
      "聞": 1641,
      "聯": 1642,
      "聰": 1643,
      "聲": 1644,
      "職": 1645,
      "聽": 1646,
      "肇": 1647,
      "肉": 1648,
      "肌": 1649,
      "肘": 1650,
      "股": 1651,
      "肥": 1652,
      "肩": 1653,
      "育": 1654,
      "胃": 1655,
      "背": 1656,
      "胎": 1657,
      "胖": 1658,
      "胸": 1659,
      "能": 1660,
      "脂": 1661,
      "脅": 1662,
      "脆": 1663,
      "脈": 1664,
      "脫": 1665,
      "腐": 1666,
      "腦": 1667,
      "腰": 1668,
      "腳": 1669,
      "腸": 1670,
      "腹": 1671,
      "腿": 1672,
      "膚": 1673,
      "膜": 1674,
      "膝": 1675,
      "膠": 1676,
      "膩": 1677,
      "臉": 1678,
      "臟": 1679,
      "臥": 1680,
      "臨": 1681,
      "自": 1682,
      "臭": 1683,
      "至": 1684,
      "致": 1685,
      "臺": 1686,
      "與": 1687,
      "興": 1688,
      "舉": 1689,
      "舊": 1690,
      "舍": 1691,
      "舒": 1692,
      "航": 1693,
      "般": 1694,
      "船": 1695,
      "艦": 1696,
      "良": 1697,
      "色": 1698,
      "艷": 1699,
      "艸": 1700,
      "芒": 1701,
      "芙": 1702,
      "芯": 1703,
      "花": 1704,
      "芽": 1705,
      "苔": 1706,
      "若": 1707,
      "苦": 1708,
      "英": 1709,
      "茄": 1710,
      "茶": 1711,
      "茹": 1712,
      "草": 1713,
      "荒": 1714,
      "荻": 1715,
      "莉": 1716,
      "莊": 1717,
      "莓": 1718,
      "莖": 1719,
      "菌": 1720,
      "菜": 1721,
      "華": 1722,
      "萌": 1723,
      "萬": 1724,
      "落": 1725,
      "葉": 1726,
      "著": 1727,
      "葦": 1728,
      "葫": 1729,
      "蒙": 1730,
      "蒲": 1731,
      "蒸": 1732,
      "蓄": 1733,
      "蓋": 1734,
      "蓮": 1735,
      "蔔": 1736,
      "蔡": 1737,
      "蔥": 1738,
      "蔽": 1739,
      "蕭": 1740,
      "蕾": 1741,
      "薄": 1742,
      "薇": 1743,
      "薏": 1744,
      "薑": 1745,
      "薛": 1746,
      "薦": 1747,
      "薪": 1748,
      "藉": 1749,
      "藍": 1750,
      "藏": 1751,
      "藝": 1752,
      "藥": 1753,
      "藻": 1754,
      "蘆": 1755,
      "蘇": 1756,
      "蘭": 1757,
      "蘿": 1758,
      "虎": 1759,
      "處": 1760,
      "號": 1761,
      "虱": 1762,
      "蚤": 1763,
      "蚵": 1764,
      "蛇": 1765,
      "蛋": 1766,
      "蜂": 1767,
      "蜜": 1768,
      "蝦": 1769,
      "融": 1770,
      "螢": 1771,
      "螺": 1772,
      "蟲": 1773,
      "蠻": 1774,
      "血": 1775,
      "行": 1776,
      "衍": 1777,
      "術": 1778,
      "街": 1779,
      "衛": 1780,
      "衝": 1781,
      "衡": 1782,
      "衣": 1783,
      "表": 1784,
      "衫": 1785,
      "衷": 1786,
      "袋": 1787,
      "袖": 1788,
      "被": 1789,
      "裁": 1790,
      "裂": 1791,
      "裕": 1792,
      "裙": 1793,
      "補": 1794,
      "裝": 1795,
      "裡": 1796,
      "裱": 1797,
      "裸": 1798,
      "裹": 1799,
      "製": 1800,
      "複": 1801,
      "褪": 1802,
      "褲": 1803,
      "襬": 1804,
      "襯": 1805,
      "西": 1806,
      "要": 1807,
      "覆": 1808,
      "見": 1809,
      "規": 1810,
      "覓": 1811,
      "視": 1812,
      "親": 1813,
      "覺": 1814,
      "覽": 1815,
      "觀": 1816,
      "角": 1817,
      "解": 1818,
      "觸": 1819,
      "言": 1820,
      "訂": 1821,
      "計": 1822,
      "訊": 1823,
      "討": 1824,
      "訐": 1825,
      "訓": 1826,
      "託": 1827,
      "記": 1828,
      "訪": 1829,
      "設": 1830,
      "許": 1831,
      "訴": 1832,
      "診": 1833,
      "註": 1834,
      "詐": 1835,
      "評": 1836,
      "詞": 1837,
      "詠": 1838,
      "詢": 1839,
      "試": 1840,
      "詩": 1841,
      "詮": 1842,
      "詰": 1843,
      "話": 1844,
      "該": 1845,
      "詳": 1846,
      "誇": 1847,
      "誌": 1848,
      "認": 1849,
      "誓": 1850,
      "誕": 1851,
      "誘": 1852,
      "語": 1853,
      "誠": 1854,
      "誤": 1855,
      "說": 1856,
      "誰": 1857,
      "課": 1858,
      "調": 1859,
      "談": 1860,
      "請": 1861,
      "論": 1862,
      "諧": 1863,
      "諺": 1864,
      "諾": 1865,
      "謀": 1866,
      "謐": 1867,
      "謔": 1868,
      "謗": 1869,
      "講": 1870,
      "謝": 1871,
      "謹": 1872,
      "證": 1873,
      "識": 1874,
      "警": 1875,
      "譯": 1876,
      "議": 1877,
      "護": 1878,
      "讀": 1879,
      "變": 1880,
      "讓": 1881,
      "讚": 1882,
      "谷": 1883,
      "豆": 1884,
      "豐": 1885,
      "豔": 1886,
      "象": 1887,
      "豪": 1888,
      "豫": 1889,
      "豬": 1890,
      "貌": 1891,
      "貓": 1892,
      "貝": 1893,
      "貞": 1894,
      "負": 1895,
      "財": 1896,
      "貨": 1897,
      "販": 1898,
      "貫": 1899,
      "責": 1900,
      "貴": 1901,
      "買": 1902,
      "費": 1903,
      "貼": 1904,
      "賀": 1905,
      "賃": 1906,
      "資": 1907,
      "賊": 1908,
      "賓": 1909,
      "賞": 1910,
      "賢": 1911,
      "賣": 1912,
      "賦": 1913,
      "質": 1914,
      "賭": 1915,
      "賴": 1916,
      "賺": 1917,
      "購": 1918,
      "賽": 1919,
      "贈": 1920,
      "贊": 1921,
      "贏": 1922,
      "贔": 1923,
      "赫": 1924,
      "走": 1925,
      "起": 1926,
      "趁": 1927,
      "超": 1928,
      "越": 1929,
      "趕": 1930,
      "趟": 1931,
      "趣": 1932,
      "趨": 1933,
      "趲": 1934,
      "足": 1935,
      "跌": 1936,
      "跑": 1937,
      "距": 1938,
      "跟": 1939,
      "跡": 1940,
      "跨": 1941,
      "路": 1942,
      "跳": 1943,
      "踏": 1944,
      "踐": 1945,
      "踢": 1946,
      "踩": 1947,
      "踴": 1948,
      "蹟": 1949,
      "蹤": 1950,
      "躍": 1951,
      "身": 1952,
      "躺": 1953,
      "車": 1954,
      "軌": 1955,
      "軍": 1956,
      "軒": 1957,
      "軟": 1958,
      "較": 1959,
      "載": 1960,
      "輔": 1961,
      "輕": 1962,
      "輛": 1963,
      "輝": 1964,
      "輩": 1965,
      "輪": 1966,
      "輯": 1967,
      "輸": 1968,
      "輾": 1969,
      "轉": 1970,
      "轎": 1971,
      "辛": 1972,
      "辜": 1973,
      "辣": 1974,
      "辦": 1975,
      "辯": 1976,
      "辰": 1977,
      "辱": 1978,
      "農": 1979,
      "迄": 1980,
      "迅": 1981,
      "迎": 1982,
      "近": 1983,
      "返": 1984,
      "迪": 1985,
      "迫": 1986,
      "述": 1987,
      "迷": 1988,
      "追": 1989,
      "退": 1990,
      "送": 1991,
      "逃": 1992,
      "逆": 1993,
      "透": 1994,
      "逐": 1995,
      "途": 1996,
      "這": 1997,
      "通": 1998,
      "逛": 1999,
      "速": 2000,
      "造": 2001,
      "連": 2002,
      "逮": 2003,
      "週": 2004,
      "進": 2005,
      "逸": 2006,
      "逼": 2007,
      "逾": 2008,
      "遇": 2009,
      "遊": 2010,
      "運": 2011,
      "遍": 2012,
      "過": 2013,
      "道": 2014,
      "達": 2015,
      "違": 2016,
      "遠": 2017,
      "遣": 2018,
      "適": 2019,
      "遭": 2020,
      "遮": 2021,
      "遲": 2022,
      "遵": 2023,
      "遷": 2024,
      "選": 2025,
      "遺": 2026,
      "避": 2027,
      "邀": 2028,
      "邁": 2029,
      "還": 2030,
      "邊": 2031,
      "那": 2032,
      "邱": 2033,
      "邸": 2034,
      "郁": 2035,
      "郎": 2036,
      "部": 2037,
      "郭": 2038,
      "郵": 2039,
      "都": 2040,
      "鄉": 2041,
      "鄭": 2042,
      "鄰": 2043,
      "酌": 2044,
      "配": 2045,
      "酒": 2046,
      "酥": 2047,
      "酪": 2048,
      "酵": 2049,
      "酷": 2050,
      "酸": 2051,
      "醃": 2052,
      "醉": 2053,
      "醒": 2054,
      "醫": 2055,
      "醬": 2056,
      "醺": 2057,
      "釀": 2058,
      "釁": 2059,
      "采": 2060,
      "釋": 2061,
      "里": 2062,
      "重": 2063,
      "野": 2064,
      "量": 2065,
      "釐": 2066,
      "金": 2067,
      "針": 2068,
      "鈔": 2069,
      "鈺": 2070,
      "銀": 2071,
      "銅": 2072,
      "銜": 2073,
      "銷": 2074,
      "鋒": 2075,
      "鋪": 2076,
      "鋼": 2077,
      "錄": 2078,
      "錐": 2079,
      "錢": 2080,
      "錦": 2081,
      "錯": 2082,
      "鍊": 2083,
      "鍋": 2084,
      "鍛": 2085,
      "鍰": 2086,
      "鍵": 2087,
      "鎖": 2088,
      "鎮": 2089,
      "鏡": 2090,
      "鏽": 2091,
      "鐘": 2092,
      "鐵": 2093,
      "鑄": 2094,
      "鑑": 2095,
      "長": 2096,
      "門": 2097,
      "開": 2098,
      "閒": 2099,
      "間": 2100,
      "閔": 2101,
      "閣": 2102,
      "閱": 2103,
      "闆": 2104,
      "闖": 2105,
      "關": 2106,
      "防": 2107,
      "阻": 2108,
      "阿": 2109,
      "附": 2110,
      "降": 2111,
      "限": 2112,
      "院": 2113,
      "陣": 2114,
      "除": 2115,
      "陰": 2116,
      "陳": 2117,
      "陶": 2118,
      "陷": 2119,
      "陸": 2120,
      "陽": 2121,
      "隆": 2122,
      "隊": 2123,
      "階": 2124,
      "隔": 2125,
      "際": 2126,
      "障": 2127,
      "隧": 2128,
      "隨": 2129,
      "險": 2130,
      "隱": 2131,
      "隻": 2132,
      "雄": 2133,
      "雅": 2134,
      "集": 2135,
      "雕": 2136,
      "雖": 2137,
      "雙": 2138,
      "雛": 2139,
      "雜": 2140,
      "雞": 2141,
      "離": 2142,
      "難": 2143,
      "雨": 2144,
      "雪": 2145,
      "雲": 2146,
      "零": 2147,
      "雷": 2148,
      "電": 2149,
      "需": 2150,
      "震": 2151,
      "霖": 2152,
      "霜": 2153,
      "霞": 2154,
      "霧": 2155,
      "露": 2156,
      "靈": 2157,
      "青": 2158,
      "靜": 2159,
      "非": 2160,
      "靠": 2161,
      "面": 2162,
      "革": 2163,
      "靴": 2164,
      "鞋": 2165,
      "鞦": 2166,
      "鞭": 2167,
      "韆": 2168,
      "韌": 2169,
      "韓": 2170,
      "音": 2171,
      "響": 2172,
      "頁": 2173,
      "頂": 2174,
      "頃": 2175,
      "項": 2176,
      "順": 2177,
      "須": 2178,
      "預": 2179,
      "頓": 2180,
      "頗": 2181,
      "領": 2182,
      "頭": 2183,
      "頸": 2184,
      "頻": 2185,
      "顆": 2186,
      "題": 2187,
      "額": 2188,
      "顏": 2189,
      "願": 2190,
      "顛": 2191,
      "類": 2192,
      "顧": 2193,
      "顯": 2194,
      "風": 2195,
      "飆": 2196,
      "飛": 2197,
      "食": 2198,
      "飩": 2199,
      "飯": 2200,
      "飲": 2201,
      "飼": 2202,
      "飽": 2203,
      "飾": 2204,
      "餃": 2205,
      "餅": 2206,
      "養": 2207,
      "餐": 2208,
      "餓": 2209,
      "餘": 2210,
      "餛": 2211,
      "餡": 2212,
      "館": 2213,
      "餵": 2214,
      "饈": 2215,
      "饋": 2216,
      "饌": 2217,
      "饕": 2218,
      "饗": 2219,
      "首": 2220,
      "香": 2221,
      "馨": 2222,
      "馬": 2223,
      "駁": 2224,
      "駐": 2225,
      "駕": 2226,
      "駛": 2227,
      "騎": 2228,
      "騙": 2229,
      "驗": 2230,
      "驚": 2231,
      "骨": 2232,
      "體": 2233,
      "高": 2234,
      "髮": 2235,
      "鬆": 2236,
      "鬥": 2237,
      "鬧": 2238,
      "魂": 2239,
      "魅": 2240,
      "魚": 2241,
      "魯": 2242,
      "鮮": 2243,
      "鯊": 2244,
      "鯨": 2245,
      "鳥": 2246,
      "鳳": 2247,
      "鳴": 2248,
      "鴨": 2249,
      "鴿": 2250,
      "鷺": 2251,
      "鸝": 2252,
      "鹹": 2253,
      "鹽": 2254,
      "麗": 2255,
      "麥": 2256,
      "麵": 2257,
      "麻": 2258,
      "麼": 2259,
      "黃": 2260,
      "黏": 2261,
      "黑": 2262,
      "點": 2263,
      "黨": 2264,
      "黯": 2265,
      "鼎": 2266,
      "鼓": 2267,
      "鼠": 2268,
      "齊": 2269,
      "齡": 2270,
      "龍": 2271,
      "龜": 2272,
      "！": 2273,
      "＃": 2274,
      "％": 2275,
      "（": 2276,
      "）": 2277,
      "＊": 2278,
      "，": 2279,
      "－": 2280,
      "／": 2281,
      "０": 2282,
      "１": 2283,
      "４": 2284,
      "８": 2285,
      "９": 2286,
      "：": 2287,
      "；": 2288,
      "？": 2289,
      "Ｄ": 2290,
      "Ｑ": 2291,
      "Ｘ": 2292,
      "［": 2293,
      "］": 2294,
      "｜": 2295,
      "～": 2296,
      "･": 2297,
      "ﾟ": 2298,
      "==": 2299,
      "====": 2300,
      "========": 2301,
      "================": 2302,
      "台南": 2303,
      "ps": 2304,
      "--": 2305,
      "20": 2306,
      "tt": 2307,
      "//": 2308,
      "://": 2309,
      "htt": 2310,
      "https": 2311,
      "交易": 2312,
      "──": 2313,
      "================================": 2314,
      "202": 2315,
      "co": 2316,
      "時間": 2317,
      "com": 2318,
      "00": 2319,
      "im": 2320,
      "an": 2321,
      "in": 2322,
      "台南市": 2323,
      "地點": 2324,
      "標題": 2325,
      "2025": 2326,
      "img": 2327,
      "┴┬": 2328,
      "ur": 2329,
      "文章": 2330,
      "jp": 2331,
      "imgur": 2332,
      "使用": 2333,
      "內容": 2334,
      "----": 2335,
      "┴┬┴┬": 2336,
      "ain": 2337,
      "看板": 2338,
      "ainan": 2339,
      "徵求": 2340,
      "Tainan": 2341,
      "10": 2342,
      "19": 2343,
      "ay": 2344,
      "水桶": 2345,
      "使用者": 2346,
      "面交": 2347,
      "請問": 2348,
      "請勿": 2349,
      "篇文章": 2350,
      "關於": 2351,
      "作者": 2352,
      "這篇文章": 2353,
      "</": 2354,
      "eg": 2355,
      "內容是": 2356,
      "請問關於": 2357,
      "「[": 2358,
      "介紹": 2359,
      "發文": 2360,
      "圖文": 2361,
      "新聞": 2362,
      "圖文介紹": 2363,
      "jpeg": 2364,
      "May": 2365,
      "重點": 2366,
      "--</": 2367,
      "─┼": 2368,
      "======": 2369,
      "==============": 2370,
      "================================================================": 2371,
      "==============================================================================": 2372,
      "違規": 2373,
      "on": 2374,
      "詐騙": 2375,
      "板規": 2376,
      "is": 2377,
      "══": 2378,
      "板主": 2379,
      "────": 2380,
      "ww": 2381,
      "二手": 2382,
      "說明": 2383,
      "jpg": 2384,
      "re": 2385,
      "18": 2386,
      "===============================================================================": 2387,
      "17": 2388,
      "活動": 2389,
      "置底": 2390,
      "pse": 2391,
      "30": 2392,
      "15": 2393,
      "面交地點": 2394,
      "3C": 2395,
      "ne": 2396,
      "表示": 2397,
      "14": 2398,
      "物品": 2399,
      "一篇": 2400,
      "台南市內": 2401,
      "12": 2402,
      "以上": 2403,
      "相關": 2404,
      "05": 2405,
      "會被": 2406,
      "--------": 2407,
      "刪除": 2408,
      "問題": 2409,
      "┴┬┴┬┴┬┴┬": 2410,
      "88": 2411,
      "Mon": 2412,
      "以下": 2413,
      "it": 2414,
      "po": 2415,
      "收集": 2416,
      "16": 2417,
      "票券": 2418,
      "類別": 2419,
      "金錢": 2420,
      "new": 2421,
      "37": 2422,
      "en": 2423,
      "news": 2424,
      "ly": 2425,
      "及金錢": 2426,
      "涉及金錢": 2427,
      "50": 2428,
      "][": 2429,
      "tw": 2430,
      "可以": 2431,
      "提供": 2432,
      "詳閱": 2433,
      "護理": 2434,
      "─┼──": 2435,
      "13": 2436,
      "bit": 2437,
      "分類": 2438,
      "推置底": 2439,
      "提醒": 2440,
      "討論": 2441,
      "or": 2442,
      "ou": 2443,
      "中西": 2444,
      "金額": 2445,
      "收集類": 2446,
      "加強": 2447,
      "發文前": 2448,
      "..": 2449,
      "ue": 2450,
      "完成": 2451,
      "記者": 2452,
      "遵守": 2453,
      "限定": 2454,
      "Tue": 2455,
      "卡片": 2456,
      "推文": 2457,
      "私人": 2458,
      ")，": 2459,
      "並遵守": 2460,
      "分享": 2461,
      "南區": 2462,
      "明顯": 2463,
      "東區": 2464,
      "為加強": 2465,
      "網路": 2466,
      "請詳閱": 2467,
      "請勿刪除": 2468,
      "以下為加強": 2469,
      "提醒請勿刪除": 2470,
      "發文前請詳閱": 2471,
      "並遵守板規": 2472,
      "以下為加強提醒請勿刪除": 2473,
      "發文前請詳閱並遵守板規": 2474,
      "11": 2475,
      "ti": 2476,
      "出售": 2477,
      "皆可": 2478,
      "LI": 2479,
      "任何": 2480,
      "醫院": 2481,
      "限一篇": 2482,
      "cc": 2483,
      "iu": 2484,
      "事務": 2485,
      "全新": 2486,
      "地標": 2487,
      "物館": 2488,
      "www": 2489,
      "推置底文": 2490,
      "中西區": 2491,
      "23": 2492,
      "be": 2493,
      "其他": 2494,
      "區名": 2495,
      "區皆可": 2496,
      "博物館": 2497,
      "可能": 2498,
      "填區名": 2499,
      "或明顯": 2500,
      "民眾": 2501,
      "請填區名": 2502,
      "資訊": 2503,
      "00元": 2504,
      "LIN": 2505,
      "或明顯地標": 2506,
      "請填區名或明顯地標": 2507,
      "個區皆可": 2508,
      "公告": 2509,
      "只填": 2510,
      "性質": 2511,
      "會員": 2512,
      "注意": 2513,
      "無法": 2514,
      "直接": 2515,
      "都有": 2516,
      "開放": 2517,
      "台南表示": 2518,
      "交易物品": 2519,
      "台南市內37": 2520,
      "─┼───┼──": 2521,
      "個區皆可面交": 2522,
      "只填台南表示": 2523,
      "台南市內37個區皆可面交": 2524,
      "只填台南表示台南市內37個區皆可面交": 2525,
      "25": 2526,
      "Spo": 2527,
      "」，": 2528,
      "─┼─┼": 2529,
      "涉及金錢任何": 2530,
      "只填台南表示台南市內37個區皆可面交唷": 2531,
      "涉及金錢任何事務": 2532,
      "地方": 2533,
      "避免": 2534,
      "）-": 2535,
      "交易類別": 2536,
      "永康": 2537,
      "沒有": 2538,
      "須為": 2539,
      "────────": 2540,
      "LINE": 2541,
      "不限": 2542,
      "主標題": 2543,
      "天限一篇": 2544,
      "板友": 2545,
      "濫用": 2546,
      "站內": 2547,
      "與收集類": 2548,
      "請注意": 2549,
      "贈送": 2550,
      "違規者": 2551,
      "3C類": 2552,
      "out": 2553,
      "21": 2554,
      "]。": 2555,
      "bb": 2556,
      "fy": 2557,
      "tm": 2558,
      "ube": 2559,
      "內文": 2560,
      "可在": 2561,
      "家人": 2562,
      "目前": 2563,
      "算在": 2564,
      "附註": 2565,
      "請勿以": 2566,
      "tify": 2567,
      "Spotify": 2568,
      "須為台南市內": 2569,
      "不限於": 2570,
      "outube": 2571,
      "):": 2572,
      "Pre": 2573,
      "Youtube": 2574,
      "er": 2575,
      "miu": 2576,
      "但勿": 2577,
      "兩者": 2578,
      "報導": 2579,
      "或內文": 2580,
      "更改": 2581,
      "為附": 2582,
      "為分享": 2583,
      "物交易": 2584,
      "等網路": 2585,
      "要買": 2586,
      "要為分享": 2587,
      "試法": 2588,
      "請推置底文": 2589,
      "賣場": 2590,
      "身試法": 2591,
      "進行": 2592,
      "防詐騙": 2593,
      "類會員": 2594,
      "台南板主": 2595,
      "交易完成": 2596,
      "標題或內文": 2597,
      "10天限一篇": 2598,
      "請勿濫用": 2599,
      "違規會被": 2600,
      "二手物交易": 2601,
      "以上兩者": 2602,
      "討論性質": 2603,
      "限定台南": 2604,
      "卡片與收集類": 2605,
      "開放二手物交易": 2606,
      "請注意台南板主": 2607,
      "違規者會被": 2608,
      "可在標題或內文": 2609,
      "算在3C類": 2610,
      "請勿以身試法": 2611,
      "Spotify等網路": 2612,
      "不限於以上兩者": 2613,
      "Premiu": 2614,
      "YoutubePremiu": 2615,
      "但勿更改": 2616,
      "為附屬": 2617,
      "要為分享討論性質": 2618,
      "類會員算在3C類": 2619,
      "交易完成可在標題或內文": 2620,
      "違規會被水桶": 2621,
      "開放二手物交易為附屬": 2622,
      "請注意台南板主要為分享討論性質": 2623,
      "Spotify等網路類會員算在3C類": 2624,
      "YoutubePremium": 2625,
      "交易完成可在標題或內文附註": 2626,
      "請注意台南板主要為分享討論性質看板": 2627,
      "07": 2628,
      "09": 2629,
      "26": 2630,
      "29": 2631,
      "下單": 2632,
      "主題": 2633,
      "凍結": 2634,
      "加LINE": 2635,
      "台灣": 2636,
      "慎防詐騙": 2637,
      "是詐騙": 2638,
      "歷史": 2639,
      "猖獗": 2640,
      "生活": 2641,
      "禁止": 2642,
      "稱家人": 2643,
      "詳細": 2644,
      "需加LINE": 2645,
      "食記": 2646,
      "ing": 2647,
      "詐騙猖獗": 2648,
      "可能是詐騙": 2649,
      "無法下單": 2650,
      "都有可能是詐騙": 2651,
      "站內信": 2652,
      "要買需加LINE": 2653,
      "賣場凍結": 2654,
      "稱家人要買需加LINE": 2655,
      "無法下單都有可能是詐騙": 2656,
      "賣場凍結無法下單都有可能是詐騙": 2657,
      "27": 2658,
      "oo": 2659,
      "文化": 2660,
      "方式": 2661,
      "5月": 2662,
      "htm": 2663,
      "帳號": 2664,
      "調查": 2665,
      "運動": 2666,
      "ang": 2667,
      "、「": 2668,
      "」、「": 2669,
      "今年": 2670,
      "停車": 2671,
      "南市": 2672,
      "文內": 2673,
      "林俊": 2674,
      "發生": 2675,
      "自行": 2676,
      "處理": 2677,
      "需要": 2678,
      "-[": 2679,
      "he": 2680,
      "od": 2681,
      "合購": 2682,
      "在台南": 2683,
      "安平": 2684,
      "寵物": 2685,
      "政治": 2686,
      "議員": 2687,
      "起來": 2688,
      "鐵路": 2689,
      "鳳梨": 2690,
      "2020": 2691,
      "2024": 2692,
      "發文分類": 2693,
      "28": 2694,
      "PO": 2695,
      "ag": 2696,
      "ee": 2697,
      "├┬": 2698,
      "交換": 2699,
      "公分": 2700,
      "打造": 2701,
      "指出": 2702,
      "現場": 2703,
      "發票": 2704,
      "警方": 2705,
      "需求": 2706,
      "交易文": 2707,
      "════": 2708,
      "護理人": 2709,
      "林俊憲": 2710,
      "99": 2711,
      "ar": 2712,
      "li": 2713,
      "to": 2714,
      "包含": 2715,
      "參考": 2716,
      "學生": 2717,
      "廣場": 2718,
      "環境": 2719,
      "規定": 2720,
      "徵求文": 2721,
      "----------------": 2722,
      "lt": 2723,
      "sh": 2724,
      "——": 2725,
      "中央": 2726,
      "修改": 2727,
      "個月": 2728,
      "刪文": 2729,
      "區域": 2730,
      "台語": 2731,
      "國小": 2732,
      "大家": 2733,
      "安南區": 2734,
      "市政": 2735,
      "情報": 2736,
      "比照": 2737,
      "盡量": 2738,
      "紀念": 2739,
      "請盡量": 2740,
      "進黨": 2741,
      "違反": 2742,
      "台南報導": 2743,
      "31": 2744,
      "36": 2745,
      "38": 2746,
      "47": 2747,
      "55": 2748,
      "67": 2749,
      "77": 2750,
      "am": 2751,
      "ig": 2752,
      "st": 2753,
      "tr": 2754,
      "。（": 2755,
      "便當": 2756,
      "健康": 2757,
      "哪裡": 2758,
      "商品": 2759,
      "執行": 2760,
      "展覽": 2761,
      "未來": 2762,
      "視為": 2763,
      "設計": 2764,
      "誤解": 2765,
      "謝謝": 2766,
      "退文": 2767,
      "長期": 2768,
      "關廟": 2769,
      "永康區": 2770,
      "oday": 2771,
      "100": 2772,
      "22": 2773,
      "ce": 2774,
      "lo": 2775,
      "不同": 2776,
      "交通": 2777,
      "回收": 2778,
      "市民": 2779,
      "教育": 2780,
      "於文內": 2781,
      "精華": 2782,
      "自己": 2783,
      "蝦仁": 2784,
      "覆主題": 2785,
      "重覆主題": 2786,
      "陳亭": 2787,
      "板規1": 2788,
      "net": 2789,
      "避免誤解": 2790,
      "詳細說明": 2791,
      "請盡量於文內": 2792,
      "展覽室": 2793,
      "精華區": 2794,
      "避免誤解請盡量於文內": 2795,
      "避免誤解請盡量於文內詳細說明": 2796,
      "01": 2797,
      "0元": 2798,
      "43": 2799,
      ":(": 2800,
      "al": 2801,
      "ch": 2802,
      "ett": 2803,
      "ptt": 2804,
      "一起": 2805,
      "不少": 2806,
      "今天": 2807,
      "周邊": 2808,
      "園區": 2809,
      "城市": 2810,
      "工作": 2811,
      "或是": 2812,
      "持續": 2813,
      "推薦": 2814,
      "揪團": 2815,
      "整理": 2816,
      "民進黨": 2817,
      "爭取": 2818,
      "發現": 2819,
      "累犯": 2820,
      "補助": 2821,
      "酒駕": 2822,
      "重複": 2823,
      "針對": 2824,
      "台南點": 2825,
      "台南市中西區": 2826,
      "8888": 2827,
      "age": 2828,
      "ettoday": 2829,
      "02": 2830,
      "04": 2831,
      "06": 2832,
      "08": 2833,
      "24": 2834,
      "7l": 2835,
      "dn": 2836,
      "gl": 2837,
      "lin": 2838,
      "zh": 2839,
      "也是": 2840,
      "二層": 2841,
      "以免": 2842,
      "售價": 2843,
      "市府": 2844,
      "店家": 2845,
      "成功": 2846,
      "手機": 2847,
      "政府": 2848,
      "文學": 2849,
      "景點": 2850,
      "條件": 2851,
      "河樂": 2852,
      "為主": 2853,
      "發表": 2854,
      "粉紅": 2855,
      "美術": 2856,
      "自家": 2857,
      "行為": 2858,
      "認定": 2859,
      "謝禮": 2860,
      "路一": 2861,
      "遊記": 2862,
      "閱讀": 2863,
      "駕駛": 2864,
      "───": 2865,
      "image": 2866,
      "30天": 2867,
      "┴┬┴┬┴┬┴┬┴┬┴┬┴┬┴┬": 2868,
      "html": 2869,
      "100元": 2870,
      "33": 2871,
      "45": 2872,
      "PT": 2873,
      "ibb": 2874,
      "om": 2875,
      "un": 2876,
      "」。": 2877,
      "一般": 2878,
      "下午": 2879,
      "不會": 2880,
      "事故": 2881,
      "住宿": 2882,
      "偉哲": 2883,
      "參與": 2884,
      "地下": 2885,
      "塑膠": 2886,
      "所有": 2887,
      "推出": 2888,
      "旅局": 2889,
      "板上": 2890,
      "民調": 2891,
      "火車": 2892,
      "結合": 2893,
      "行溪": 2894,
      "規範": 2895,
      "觀旅局": 2896,
      "議會": 2897,
      "資料": 2898,
      "質詢": 2899,
      "部分": 2900,
      "集點": 2901,
      "黃偉哲": 2902,
      "202505": 2903,
      "═══": 2904,
      "護理師": 2905,
      "卡片類": 2906,
      "─┼─┼─┼─┼": 2907,
      "ltn": 2908,
      "trl": 2909,
      "陳亭妃": 2910,
      "7l7": 2911,
      "二層行溪": 2912,
      "河樂廣場": 2913,
      "PTT": 2914,
      "87": 2915,
      "as": 2916,
      "ho": 2917,
      "my": 2918,
      "se": 2919,
      "┌─": 2920,
      "一次": 2921,
      "上訴": 2922,
      "不可": 2923,
      "中心": 2924,
      "事件": 2925,
      "來信": 2926,
      "個人": 2927,
      "價格": 2928,
      "億元": 2929,
      "優惠": 2930,
      "公園": 2931,
      "分身": 2932,
      "利用": 2933,
      "友善": 2934,
      "天氣": 2935,
      "宣傳": 2936,
      "工程": 2937,
      "得不": 2938,
      "愛情": 2939,
      "感謝": 2940,
      "提報": 2941,
      "方便": 2942,
      "是否": 2943,
      "本類別": 2944,
      "檢舉": 2945,
      "生態": 2946,
      "男子": 2947,
      "職場": 2948,
      "舊鐵路": 2949,
      "芒果": 2950,
      "藝術": 2951,
      "許多": 2952,
      "責任": 2953,
      "近期": 2954,
      "透過": 2955,
      "通知": 2956,
      "進入": 2957,
      "還有": 2958,
      "項目": 2959,
      "2022": 2960,
      "文章內容": 2961,
      "rea": 2962,
      "296": 2963,
      "停車場": 2964,
      "護理人力": 2965,
      "比照交易文": 2966,
      "美術館": 2967,
      "火車站": 2968,
      "舊鐵路橋": 2969,
      "1號": 2970,
      "40": 2971,
      "48": 2972,
      "4月": 2973,
      "58": 2974,
      "BR": 2975,
      "fa": 2976,
      "wh": 2977,
      "┴┤": 2978,
      "║║": 2979,
      "一天": 2980,
      "不到": 2981,
      "不是": 2982,
      "中華": 2983,
      "之後": 2984,
      "也有": 2985,
      "人員": 2986,
      "億載": 2987,
      "兒童": 2988,
      "共同": 2989,
      "出現": 2990,
      "分局": 2991,
      "初選": 2992,
      "功能": 2993,
      "務必": 2994,
      "原則": 2995,
      "原文": 2996,
      "回文": 2997,
      "回饋": 2998,
      "城武": 2999,
      "夜市": 3000,
      "威權": 3001,
      "媽媽": 3002,
      "定期": 3003,
      "專用": 3004,
      "就是": 3005,
      "市場": 3006,
      "建築": 3007,
      "影響": 3008,
      "後續": 3009,
      "情況": 3010,
      "情節": 3011,
      "成為": 3012,
      "投入": 3013,
      "故事": 3014,
      "明年": 3015,
      "朋友": 3016,
      "期間": 3017,
      "林澤": 3018,
      "條款": 3019,
      "業者": 3020,
      "法院": 3021,
      "洋裝": 3022,
      "特色": 3023,
      "環保": 3024,
      "產品": 3025,
      "申訴": 3026,
      "相同": 3027,
      "福壽": 3028,
      "竹筍": 3029,
      "綠能": 3030,
      "綠竹筍": 3031,
      "聯合": 3032,
      "股東": 3033,
      "若有": 3034,
      "親子": 3035,
      "計畫": 3036,
      "許願": 3037,
      "請務必": 3038,
      "警告": 3039,
      "超過": 3040,
      "連結": 3041,
      "金城武": 3042,
      "附近": 3043,
      "陳男": 3044,
      "雙方": 3045,
      "，「": 3046,
      "台南板": 3047,
      "2019": 3048,
      "台南市東區": 3049,
      "url": 3050,
      "水桶30天": 3051,
      "5047": 3052,
      "13家": 3053,
      "─┼───┼───┼───┼──": 3054,
      "bbs": 3055,
      "├┬┤": 3056,
      "路一段": 3057,
      "┌─┐": 3058,
      "億載金城武": 3059,
      "林澤峰": 3060,
      "0公分": 3061,
      "2名": 3062,
      "46": 3063,
      "520": 3064,
      "66": 3065,
      "600": 3066,
      "CC": 3067,
      "ID": 3068,
      "Lin": 3069,
      "at": 3070,
      "fr": 3071,
      "goo": 3072,
      "j05": 3073,
      "mm": 3074,
      "si": 3075,
      "yo": 3076,
      "┴┼": 3077,
      "不過": 3078,
      "以及": 3079,
      "個百": 3080,
      "停辦": 3081,
      "價值": 3082,
      "公尺": 3083,
      "冠麻": 3084,
      "冰箱": 3085,
      "同一": 3086,
      "名單": 3087,
      "哪邊": 3088,
      "單位": 3089,
      "四機": 3090,
      "因此": 3091,
      "夏日": 3092,
      "多元": 3093,
      "安全": 3094,
      "察官": 3095,
      "市長": 3096,
      "店名": 3097,
      "廢四機": 3098,
      "廣告": 3099,
      "強調": 3100,
      "徐男": 3101,
      "意見": 3102,
      "感覺": 3103,
      "成大": 3104,
      "改善": 3105,
      "日一篇": 3106,
      "樓展覽室": 3107,
      "歡迎": 3108,
      "歸仁": 3109,
      "治療": 3110,
      "浪漫": 3111,
      "溝通": 3112,
      "特定": 3113,
      "狀況": 3114,
      "的人": 3115,
      "看看": 3116,
      "空間": 3117,
      "符合": 3118,
      "系統": 3119,
      "聯單": 3120,
      "自取": 3121,
      "與台南": 3122,
      "衛生": 3123,
      "規劃": 3124,
      "規畫": 3125,
      "觀光": 3126,
      "買賣": 3127,
      "購買": 3128,
      "路與": 3129,
      "轉錄": 3130,
      "辦法": 3131,
      "過程": 3132,
      "黑冠麻": 3133,
      "20日": 3134,
      "imgpo": 3135,
      "one": 3136,
      "reurl": 3137,
      "14年": 3138,
      "ent": 3139,
      "紀念品": 3140,
      "face": 3141,
      "whj05": 3142,
      "福壽螺": 3143,
      "Line": 3144,
      "┴┼─┼": 3145,
      "黑冠麻鷺": 3146,
      "imgpoi": 3147,
      "whj0530": 3148,
      "223": 3149,
      "300": 3150,
      "60": 3151,
      "8月": 3152,
      "8223": 3153,
      "Sent": 3154,
      "YY": 3155,
      "ad": 3156,
      "la": 3157,
      "tainan": 3158,
      "us": 3159,
      "udn": 3160,
      "一下": 3161,
      "一個月": 3162,
      "不只": 3163,
      "不得": 3164,
      "不能": 3165,
      "不要": 3166,
      "仁德": 3167,
      "例如": 3168,
      "保留": 3169,
      "傳統": 3170,
      "兩組": 3171,
      "出來": 3172,
      "判決": 3173,
      "加碼": 3174,
      "動置底": 3175,
      "南科": 3176,
      "危險": 3177,
      "原因": 3178,
      "口味": 3179,
      "另外": 3180,
      "同時": 3181,
      "同期": 3182,
      "因為": 3183,
      "團報": 3184,
      "完畢": 3185,
      "宣布": 3186,
      "宿舍": 3187,
      "將不": 3188,
      "小心": 3189,
      "市價": 3190,
      "布置": 3191,
      "年來": 3192,
      "廢棄": 3193,
      "手動置底": 3194,
      "提出": 3195,
      "搭配": 3196,
      "支持": 3197,
      "政策": 3198,
      "旅行": 3199,
      "旅遊": 3200,
      "智慧": 3201,
      "有限": 3202,
      "有點": 3203,
      "東良": 3204,
      "林東良": 3205,
      "查詢": 3206,
      "模式": 3207,
      "機車": 3208,
      "檢察官": 3209,
      "法官": 3210,
      "泡泡": 3211,
      "照片": 3212,
      "獎勵": 3213,
      "現在": 3214,
      "疑慮": 3215,
      "發展": 3216,
      "的地方": 3217,
      "真交易": 3218,
      "移除": 3219,
      "米唐": 3220,
      "系列": 3221,
      "經典": 3222,
      "總質詢": 3223,
      "纖維": 3224,
      "罰金": 3225,
      "群組": 3226,
      "臭青": 3227,
      "行人": 3228,
      "認養": 3229,
      "請見": 3230,
      "謝龍": 3231,
      "貼圖": 3232,
      "造成": 3233,
      "選擇": 3234,
      "配菜": 3235,
      "長榮": 3236,
      "台南市長": 3237,
      "台南市政府": 3238,
      "徵求內容": 3239,
      "...": 3240,
      "記者林東良": 3241,
      "直接刪文": 3242,
      "────────────": 3243,
      "禁止項目": 3244,
      "關廟區": 3245,
      "重覆主題徵求文": 3246,
      "愛情許願": 3247,
      "BRF": 3248,
      "from": 3249,
      "個百分": 3250,
      "市長黃偉哲": 3251,
      "┴┼─┼┴┼─┼": 3252,
      "臭青母": 3253,
      "謝龍介": 3254,
      "愛情許願池": 3255,
      "1館": 3256,
      "120": 3257,
      "35": 3258,
      "56": 3259,
      "59": 3260,
      "500元": 3261,
      "6月": 3262,
      "73": 3263,
      "74": 3264,
      "78": 3265,
      "Kyo": 3266,
      "Ph": 3267,
      "_1": 3268,
      "boo": 3269,
      "brea": 3270,
      "cn": 3271,
      "esi": 3272,
      "ie": 3273,
      "ix": 3274,
      "iam": 3275,
      "iPh": 3276,
      "king": 3277,
      "wu": 3278,
      "yu": 3279,
      "═╤": 3280,
      "═╪": 3281,
      "一名": 3282,
      "一堆": 3283,
      "不重覆主題": 3284,
      "中午": 3285,
      "也不": 3286,
      "他人": 3287,
      "來看看": 3288,
      "便宜": 3289,
      "保護": 3290,
      "假徵求": 3291,
      "停電": 3292,
      "入場": 3293,
      "入夏": 3294,
      "公所": 3295,
      "其中": 3296,
      "加上": 3297,
      "北區": 3298,
      "北門": 3299,
      "南部": 3300,
      "古蹟": 3301,
      "呼籲": 3302,
      "品價值": 3303,
      "善化": 3304,
      "國民": 3305,
      "增加": 3306,
      "女子": 3307,
      "姓男子": 3308,
      "學校": 3309,
      "學習": 3310,
      "安南": 3311,
      "寶寶": 3312,
      "射精": 3313,
      "小於": 3314,
      "小額": 3315,
      "展示": 3316,
      "山上": 3317,
      "市議員": 3318,
      "帶路": 3319,
      "年度": 3320,
      "引發": 3321,
      "意者": 3322,
      "成長": 3323,
      "招牌": 3324,
      "推動": 3325,
      "搜尋": 3326,
      "攝影": 3327,
      "收成": 3328,
      "攻擊": 3329,
      "易科": 3330,
      "時請": 3331,
      "景觀": 3332,
      "最後": 3333,
      "有人": 3334,
      "有沒有": 3335,
      "民間": 3336,
      "水道": 3337,
      "法規": 3338,
      "玉井": 3339,
      "用品": 3340,
      "畫面": 3341,
      "當時": 3342,
      "發言": 3343,
      "百萬": 3344,
      "的是": 3345,
      "的話": 3346,
      "的徵求文": 3347,
      "的揪團": 3348,
      "知道": 3349,
      "社區": 3350,
      "給予": 3351,
      "翻譯": 3352,
      "育雛": 3353,
      "自由": 3354,
      "自身": 3355,
      "與周邊": 3356,
      "被告": 3357,
      "被害": 3358,
      "請用": 3359,
      "請站內信": 3360,
      "請參考": 3361,
      "象徵": 3362,
      "資源": 3363,
      "路人": 3364,
      "路口": 3365,
      "身體": 3366,
      "輕重": 3367,
      "限台南": 3368,
      "隧道": 3369,
      "雙人": 3370,
      "雞腿": 3371,
      "電動": 3372,
      "需符合": 3373,
      "頭君": 3374,
      "館方": 3375,
      "駁回": 3376,
      "魚頭君": 3377,
      "台南限定": 3378,
      "台南河樂廣場": 3379,
      "2023": 3380,
      "台南市南區": 3381,
      "台南市美術館": 3382,
      "2025年": 3383,
      "19日": 3384,
      "發文者": 3385,
      "reesi": 3386,
      "888": 3387,
      "168888": 3388,
      "eng": 3389,
      "50元": 3390,
      "提供資訊": 3391,
      "ory": 3392,
      "ouse": 3393,
      "南市議會": 3394,
      "here": 3395,
      "安平區": 3396,
      "區域也": 3397,
      "以免觸": 3398,
      "粉紅球": 3399,
      "謝禮回饋": 3400,
      "20250519": 3401,
      "二層行溪舊鐵路橋": 3402,
      "原則小於": 3403,
      "情節輕重": 3404,
      "50478": 3405,
      "廢四機回收": 3406,
      "過程中": 3407,
      "福壽螺卵": 3408,
      "廢棄物": 3409,
      "關廟區公所": 3410,
      "個百分點": 3411,
      "Kyoto": 3412,
      "breaking": 3413,
      "iam168888": 3414,
      "iPhone": 3415,
      "不重覆主題的徵求文": 3416,
      "假徵求真交易": 3417,
      "品價值需符合": 3418,
      "國民黨": 3419,
      "小額市價": 3420,
      "易科罰金": 3421,
      "水道博物館": 3422,
      "法規禁止項目": 3423,
      "reesion": 3424,
      "謝禮回饋品價值需符合": 3425,
      "原則小於100元": 3426,
      "breakingnews": 3427,
      "iam168888888": 3428,
      "謝禮回饋品價值需符合小額市價": 3429,
      "1年": 3430,
      "2人": 3431,
      "2館": 3432,
      "4座": 3433,
      "57": 3434,
      "5次": 3435,
      "69": 3436,
      "7j": 3437,
      "80": 3438,
      "Ctrl": 3439,
      "JA": 3440,
      "Jo": 3441,
      "VI": 3442,
      "VW": 3443,
      "car": 3444,
      "ctrl": 3445,
      "gu": 3446,
      "hi": 3447,
      "htw": 3448,
      "ll": 3449,
      "ng": 3450,
      "no": 3451,
      "nig": 3452,
      "pp": 3453,
      "ri": 3454,
      "rr": 3455,
      "ts": 3456,
      "ua": 3457,
      "uc": 3458,
      "ve": 3459,
      "├────": 3460,
      "┬───": 3461,
      "┴───": 3462,
      "┼─┼─┼─┼─┼": 3463,
      "┼────────────": 3464,
      "。(": 3465,
      "一張": 3466,
      "下得不": 3467,
      "不服": 3468,
      "丟包": 3469,
      "享優惠": 3470,
      "人出": 3471,
      "人力": 3472,
      "今下午": 3473,
      "仍未": 3474,
      "以享優惠": 3475,
      "任務": 3476,
      "作業": 3477,
      "作為": 3478,
      "佬點": 3479,
      "信件": 3480,
      "免費": 3481,
      "兒園": 3482,
      "公仔": 3483,
      "公共": 3484,
      "具體": 3485,
      "再犯": 3486,
      "再發文": 3487,
      "初步": 3488,
      "初犯": 3489,
      "剛好": 3490,
      "勿徵求": 3491,
      "勿假徵求真交易": 3492,
      "即可": 3493,
      "即時": 3494,
      "另一": 3495,
      "只有": 3496,
      "可水桶": 3497,
      "台文": 3498,
      "吃起來": 3499,
      "合併": 3500,
      "同本": 3501,
      "咖啡": 3502,
      "回應": 3503,
      "回答": 3504,
      "國立": 3505,
      "基層": 3506,
      "多次": 3507,
      "大眾": 3508,
      "大量": 3509,
      "太陽": 3510,
      "奇美": 3511,
      "女中": 3512,
      "好心": 3513,
      "如徵": 3514,
      "嬰中心": 3515,
      "完整": 3516,
      "家教": 3517,
      "審理": 3518,
      "小時": 3519,
      "尿布": 3520,
      "已經": 3521,
      "幼兒園": 3522,
      "幾年": 3523,
      "強制": 3524,
      "徵認養": 3525,
      "心得": 3526,
      "應該": 3527,
      "或請": 3528,
      "或中西區": 3529,
      "抽獎": 3530,
      "指南": 3531,
      "挑戰": 3532,
      "探索": 3533,
      "措施": 3534,
      "提問": 3535,
      "搶救": 3536,
      "改用": 3537,
      "故障": 3538,
      "新營": 3539,
      "明區域也": 3540,
      "是一": 3541,
      "昱愷": 3542,
      "晚上": 3543,
      "暴衝": 3544,
      "曝光": 3545,
      "書桌": 3546,
      "最高": 3547,
      "林昱愷": 3548,
      "正常": 3549,
      "歷經": 3550,
      "每人": 3551,
      "比較": 3552,
      "浮雲": 3553,
      "海外": 3554,
      "消防": 3555,
      "清楚": 3556,
      "清水": 3557,
      "炎熱": 3558,
      "無相關": 3559,
      "營利": 3560,
      "爬文": 3561,
      "瑞峰": 3562,
      "產業": 3563,
      "申請": 3564,
      "的一": 3565,
      "的小": 3566,
      "的內容": 3567,
      "的資料": 3568,
      "的朋友": 3569,
      "監執行": 3570,
      "目擊": 3571,
      "目標": 3572,
      "相當": 3573,
      "研究": 3574,
      "社會": 3575,
      "種植": 3576,
      "積極": 3577,
      "立委": 3578,
      "等請": 3579,
      "管理": 3580,
      "經費": 3581,
      "聯名": 3582,
      "花園": 3583,
      "若是": 3584,
      "若文章內容": 3585,
      "菜單": 3586,
      "著可水桶": 3587,
      "行按": 3588,
      "衝撞": 3589,
      "裝置": 3590,
      "裝飾": 3591,
      "製冰": 3592,
      "製成": 3593,
      "視情節輕重": 3594,
      "親水": 3595,
      "註明區域也": 3596,
      "認為": 3597,
      "語言": 3598,
      "調整": 3599,
      "請連": 3600,
      "豐富": 3601,
      "贈品": 3602,
      "路上": 3603,
      "路線": 3604,
      "送醫": 3605,
      "這個": 3606,
      "這裡": 3607,
      "週末": 3608,
      "遊憩": 3609,
      "違著可水桶": 3610,
      "適合": 3611,
      "選人": 3612,
      "還是": 3613,
      "醃製": 3614,
      "醫療": 3615,
      "重大": 3616,
      "開始": 3617,
      "降售": 3618,
      "陸續": 3619,
      "雖然": 3620,
      "雞舍": 3621,
      "非常": 3622,
      "音樂": 3623,
      "顯示": 3624,
      "風險": 3625,
      "香氣": 3626,
      "黑名": 3627,
      "台南地": 3628,
      "imgus": 3629,
      "┴┬┴┬┴┬": 3630,
      "徵求交易": 3631,
      "徵求物品": 3632,
      "徵求類別": 3633,
      "10日一篇": 3634,
      "板規8": 3635,
      "板主保護": 3636,
      "說明提供": 3637,
      "置底文": 3638,
      "面交地點請填區名或明顯地標": 3639,
      "物品交換": 3640,
      "以上閱讀": 3641,
      "相關事件": 3642,
      "收集類請": 3643,
      "....": 3644,
      "博物館節": 3645,
      "─┼───┼──┼────────────": 3646,
      "─┼─┼─┼───┼──┼────────────": 3647,
      "板友提供資訊": 3648,
      "歷史博物館": 3649,
      "文化部": 3650,
      "文內說明提供": 3651,
      "在台南板": 3652,
      "寵物徵認養": 3653,
      "鐵路地下": 3654,
      "2024年": 3655,
      "PO在台南板": 3656,
      "護理人員": 3657,
      "story": 3658,
      "推薦的": 3659,
      "條件與台南": 3660,
      "為主的揪團": 3661,
      "方便板友提供資訊": 3662,
      "本類別為": 3663,
      "責任醫院": 3664,
      "通知直接刪文": 3665,
      "威權象徵": 3666,
      "股東紀念品": 3667,
      "請務必詳閱": 3668,
      "水桶30天以上": 3669,
      "冰箱廢四機回收": 3670,
      "夏日浮雲": 3671,
      "特定相關事件": 3672,
      "衛生局": 3673,
      "faceboo": 3674,
      "Line群組": 3675,
      "一個月限一篇": 3676,
      "完畢請連": 3677,
      "將不通知直接刪文": 3678,
      "旅行指南": 3679,
      "長榮女中": 3680,
      "═╤═╤": 3681,
      "═╪═╪": 3682,
      "來看看近期": 3683,
      "入夏旅行指南": 3684,
      "時請文內說明提供": 3685,
      "限台南特定相關事件": 3686,
      "魚頭君帶路": 3687,
      "台南河樂廣場粉紅球": 3688,
      "ousell": 3689,
      "以免觸法": 3690,
      "法規禁止項目以免觸法": 3691,
      "7jy": 3692,
      "carousell": 3693,
      "htwing": 3694,
      "nightwing": 3695,
      "├────┼─┼─┼─┼─┼": 3696,
      "下得不夠": 3697,
      "人出借": 3698,
      "以享優惠為主的揪團": 3699,
      "勿徵求法規禁止項目以免觸法": 3700,
      "同本行按": 3701,
      "回答問題": 3702,
      "好心人出借": 3703,
      "如徵Line群組": 3704,
      "或請好心人出借": 3705,
      "消防局": 3706,
      "無相關將不通知直接刪文": 3707,
      "等請改用": 3708,
      "若文章內容條件與台南": 3709,
      "視情節輕重違著可水桶": 3710,
      "註明區域也方便板友提供資訊": 3711,
      "徵求物品時請文內說明提供": 3712,
      "板主保護條款": 3713,
      "物品交換或請好心人出借": 3714,
      "以上閱讀完畢請連": 3715,
      "─┼─┼─┼───┼──┼────────────┤": 3716,
      "鐵路地下化": 3717,
      "facebook": 3718,
      "限台南特定相關事件資訊": 3719,
      "├────┼─┼─┼─┼─┼─┼─┼─┼───┼──┼────────────┤": 3720,
      "若文章內容條件與台南無相關將不通知直接刪文": 3721,
      "徵求物品時請文內說明提供物品交換或請好心人出借": 3722,
      "以上閱讀完畢請連同本行按": 3723,
      "()": 3724,
      "1d": 3725,
      "1樓": 3726,
      "114": 3727,
      "2處理": 3728,
      "32": 3729,
      "39": 3730,
      "49": 3731,
      "400": 3732,
      "5y": 3733,
      "5z": 3734,
      "500": 3735,
      "61": 3736,
      "89": 3737,
      "AI": 3738,
      "AN": 3739,
      "EX": 3740,
      "SO": 3741,
      "Sho": 3742,
      "Up": 3743,
      "WJA": 3744,
      "]，": 3745,
      "ai": 3746,
      "ao": 3747,
      "bo": 3748,
      "dy": 3749,
      "ed": 3750,
      "ew": 3751,
      "ha": 3752,
      "hu": 3753,
      "me": 3754,
      "png": 3755,
      "rq": 3756,
      "rts": 3757,
      "ver": 3758,
      "wWJA": 3759,
      "y2": 3760,
      "yan": 3761,
      "─┤": 3762,
      "├─┼───┼───┼───┼──": 3763,
      "一座": 3764,
      "一律": 3765,
      "一輛": 3766,
      "三吃": 3767,
      "上午": 3768,
      "不懂": 3769,
      "不治": 3770,
      "不用": 3771,
      "不適": 3772,
      "不涉及金錢": 3773,
      "不知道": 3774,
      "久水桶": 3775,
      "予以": 3776,
      "事長": 3777,
      "互動": 3778,
      "人包": 3779,
      "人物": 3780,
      "人的": 3781,
      "什麼": 3782,
      "他們": 3783,
      "代步": 3784,
      "似乎": 3785,
      "但是": 3786,
      "住地": 3787,
      "佳里": 3788,
      "保障": 3789,
      "修復": 3790,
      "做過": 3791,
      "價位": 3792,
      "先做過": 3793,
      "全案": 3794,
      "兩次": 3795,
      "公司": 3796,
      "凌晨": 3797,
      "分鐘": 3798,
      "判刑": 3799,
      "判斷": 3800,
      "到場": 3801,
      "前往": 3802,
      "前瞻": 3803,
      "創意": 3804,
      "功課": 3805,
      "包括": 3806,
      "南化": 3807,
      "原廠": 3808,
      "參加": 3809,
      "及收集類請": 3810,
      "可愛": 3811,
      "可議": 3812,
      "各式": 3813,
      "同一篇": 3814,
      "吸塵": 3815,
      "售出": 3816,
      "問問題": 3817,
      "因地下": 3818,
      "國際": 3819,
      "圖片": 3820,
      "團隊": 3821,
      "團體": 3822,
      "在地": 3823,
      "在板上": 3824,
      "型車": 3825,
      "基本": 3826,
      "基礎": 3827,
      "報名": 3828,
      "多重": 3829,
      "大樓": 3830,
      "失蹤": 3831,
      "姝琇": 3832,
      "嬰兒": 3833,
      "子三吃": 3834,
      "孤狗": 3835,
      "定古蹟": 3836,
      "對比": 3837,
      "導致": 3838,
      "尺寸": 3839,
      "居住地": 3840,
      "山國小": 3841,
      "市區": 3842,
      "市定古蹟": 3843,
      "平均": 3844,
      "年底": 3845,
      "建立": 3846,
      "弁當": 3847,
      "影像": 3848,
      "待遇": 3849,
      "心臟": 3850,
      "應推置底文": 3851,
      "懶人包": 3852,
      "成新": 3853,
      "手作": 3854,
      "才能": 3855,
      "打開": 3856,
      "托嬰中心": 3857,
      "把參考": 3858,
      "掌握": 3859,
      "推廣": 3860,
      "推車": 3861,
      "提貨": 3862,
      "收納": 3863,
      "救護": 3864,
      "教學": 3865,
      "數卡": 3866,
      "施工": 3867,
      "旁邊": 3868,
      "日起": 3869,
      "旺詮": 3870,
      "最新": 3871,
      "最近": 3872,
      "會理": 3873,
      "服務": 3874,
      "本土": 3875,
      "格紋": 3876,
      "槍殺": 3877,
      "樂園": 3878,
      "此外": 3879,
      "步道": 3880,
      "永久水桶": 3881,
      "決定": 3882,
      "清除": 3883,
      "湊發票": 3884,
      "火警": 3885,
      "為了": 3886,
      "無涉及金錢任何事務": 3887,
      "特別": 3888,
      "特殊": 3889,
      "獲報": 3890,
      "王姝琇": 3891,
      "玩具": 3892,
      "甚至": 3893,
      "甜粽": 3894,
      "由於": 3895,
      "留住": 3896,
      "的外": 3897,
      "的活動": 3898,
      "的物品": 3899,
      "的居住地": 3900,
      "看到": 3901,
      "看起來": 3902,
      "真的": 3903,
      "確定": 3904,
      "示範": 3905,
      "社記者": 3906,
      "管道": 3907,
      "範例": 3908,
      "粽子三吃": 3909,
      "結構": 3910,
      "絲飯": 3911,
      "經濟": 3912,
      "綜合": 3913,
      "維持": 3914,
      "網友": 3915,
      "編號": 3916,
      "纜故障": 3917,
      "習慣": 3918,
      "翻轉": 3919,
      "老師": 3920,
      "而非": 3921,
      "肉絲飯": 3922,
      "自然": 3923,
      "與推文": 3924,
      "與申訴": 3925,
      "與回答問題": 3926,
      "興建": 3927,
      "菜色": 3928,
      "萬顆": 3929,
      "處分": 3930,
      "蜂蜜": 3931,
      "裁定": 3932,
      "製作": 3933,
      "西門": 3934,
      "要求": 3935,
      "觀察": 3936,
      "計劃": 3937,
      "記憶": 3938,
      "評估": 3939,
      "詢問": 3940,
      "試吃": 3941,
      "試用": 3942,
      "請找": 3943,
      "請推": 3944,
      "證據": 3945,
      "護照": 3946,
      "讓人": 3947,
      "買單": 3948,
      "費用": 3949,
      "貼出來": 3950,
      "購入": 3951,
      "車禍": 3952,
      "輕量": 3953,
      "辱罵": 3954,
      "農民": 3955,
      "送往": 3956,
      "進度": 3957,
      "選用": 3958,
      "鄉民": 3959,
      "重新": 3960,
      "重PO": 3961,
      "釐清": 3962,
      "長陳": 3963,
      "門口": 3964,
      "開挖": 3965,
      "關鍵": 3966,
      "降低": 3967,
      "雙層": 3968,
      "電子": 3969,
      "電腦": 3970,
      "電纜故障": 3971,
      "靜置": 3972,
      "非徵求交易": 3973,
      "預計": 3974,
      "領先": 3975,
      "風吹": 3976,
      "餐飲": 3977,
      "馬路": 3978,
      "體驗": 3979,
      "高分": 3980,
      "高雄": 3981,
      "），": 3982,
      "？(": 3983,
      "台南的": 3984,
      "台南東區": 3985,
      "台南火車站": 3986,
      "200": 3987,
      "200元": 3988,
      "┴┬┴": 3989,
      "內容視為": 3990,
      "-----": 3991,
      "------": 3992,
      "┴┬┴┬┤": 3993,
      "關於問問題": 3994,
      "違規文章": 3995,
      "15天": 3996,
      "15年來": 3997,
      "3C產品": 3998,
      "123": 3999,
      "相關的": 4000,
      "問題的內容": 4001,
      "票券類": 4002,
      "13wWJA": 4003,
      "記者蔡": 4004,
      "記者王姝琇": 4005,
      "─┼───┼───┤": 4006,
      "台灣文學": 4007,
      "台灣歷史博物館": 4008,
      "文化園區": 4009,
      "運動健康": 4010,
      "政治新聞": 4011,
      "------------------": 4012,
      "----------------------": 4013,
      "中央社記者": 4014,
      "台語翻譯": 4015,
      "市政總質詢": 4016,
      "load": 4017,
      "不同帳號": 4018,
      "教育局": 4019,
      "自己的": 4020,
      "蝦仁飯": 4021,
      "蝦仁肉絲飯": 4022,
      "酒駕累犯": 4023,
      "gle": 4024,
      "認定方式": 4025,
      "謝禮有限": 4026,
      "塑膠球": 4027,
      "卡片類及收集類請": 4028,
      "不可涉及金錢": 4029,
      "不可重PO": 4030,
      "是否先做過": 4031,
      "檢舉與申訴": 4032,
      "職場環境": 4033,
      "比照交易文1": 4034,
      "相同內容視為": 4035,
      "聯合報": 4036,
      "13家責任醫院": 4037,
      "歸仁區": 4038,
      "提出不懂": 4039,
      "發文者的居住地": 4040,
      "關廟區公所指出": 4041,
      "┬───┬───": 4042,
      "┴───┴───": 4043,
      "提問專用": 4044,
      "瑞峰國小": 4045,
      "的資料貼出來": 4046,
      "製冰機": 4047,
      "寵物徵認養等": 4048,
      "本類別為提問專用": 4049,
      "5y9": 4050,
      "Shop": 4051,
      "Upload": 4052,
      "├─┼───┼───┼───┼───┼───┼───┤": 4053,
      "吸塵器": 4054,
      "因地下電纜故障": 4055,
      "多重分身": 4056,
      "把參考的資料貼出來": 4057,
      "會理事長": 4058,
      "而非發文者的居住地": 4059,
      "非徵求交易使用": 4060,
      "關於問問題與回答問題": 4061,
      "問題的內容條件": 4062,
      "13wWJAy2": 4063,
      "謝禮有限額": 4064,
      "卡片類及收集類請推置底": 4065,
      "是否先做過功課": 4066,
      "檢舉與申訴辦法": 4067,
      "相同內容視為同一篇": 4068,
      "提出不懂的地方": 4069,
      "->": 4070,
      "010": 4071,
      "1傷": 4072,
      "1戶": 4073,
      "118": 4074,
      "2公尺": 4075,
      "3w": 4076,
      "3點": 4077,
      "3樓展覽室": 4078,
      "42": 4079,
      "4屆": 4080,
      "51": 4081,
      "5w": 4082,
      "510": 4083,
      "5ww": 4084,
      "68": 4085,
      "699": 4086,
      "75": 4087,
      "7月": 4088,
      "7ee": 4089,
      "86": 4090,
      "8日": 4091,
      "90": 4092,
      "95": 4093,
      "::": 4094,
      "BF": 4095,
      "F碼": 4096,
      "Han": 4097,
      "JPTT": 4098,
      "RK": 4099,
      "SK": 4100,
      "St": 4101,
      "UB": 4102,
      "bK": 4103,
      "ck": 4104,
      "cdn": 4105,
      "ds": 4106,
      "d8223": 4107,
      "et": 4108,
      "ex": 4109,
      "for": 4110,
      "go": 4111,
      "ii": 4112,
      "le": 4113,
      "mee": 4114,
      "nd": 4115,
      "op": 4116,
      "pN": 4117,
      "px": 4118,
      "ro": 4119,
      "so": 4120,
      "va": 4121,
      "wa": 4122,
      "wq": 4123,
      "wen": 4124,
      "wang": 4125,
      "xa": 4126,
      "xu": 4127,
      "zT": 4128,
      "ê路與": 4129,
      "├┴┬┴┬": 4130,
      "┬┴┬": 4131,
      "╰╮": 4132,
      "一個": 4133,
      "一同": 4134,
      "一步": 4135,
      "一直": 4136,
      "一路": 4137,
      "一分局": 4138,
      "七股": 4139,
      "下的": 4140,
      "不老": 4141,
      "不足": 4142,
      "不錯": 4143,
      "中彈": 4144,
      "中正": 4145,
      "中街": 4146,
      "主菜": 4147,
      "主要": 4148,
      "事人": 4149,
      "事項": 4150,
      "二犯": 4151,
      "于甄": 4152,
      "人數": 4153,
      "人與": 4154,
      "仁華": 4155,
      "仍待": 4156,
      "他板": 4157,
      "休旅": 4158,
      "作品": 4159,
      "佮海": 4160,
      "來說": 4161,
      "保育": 4162,
      "修正": 4163,
      "倒臥": 4164,
      "健身": 4165,
      "像一堆": 4166,
      "像福壽螺卵": 4167,
      "儀館": 4168,
      "優先": 4169,
      "光本": 4170,
      "免稅": 4171,
      "入口": 4172,
      "入監執行": 4173,
      "內參": 4174,
      "內政": 4175,
      "全力": 4176,
      "全線": 4177,
      "全部": 4178,
      "兩件": 4179,
      "兩地": 4180,
      "共有": 4181,
      "具有": 4182,
      "再生": 4183,
      "再利用": 4184,
      "冷氣": 4185,
      "出動": 4186,
      "判處": 4187,
      "到貨": 4188,
      "參選人": 4189,
      "受到": 4190,
      "只是": 4191,
      "可自行": 4192,
      "台電": 4193,
      "吃什麼": 4194,
      "合作": 4195,
      "吸引": 4196,
      "呈現": 4197,
      "告知": 4198,
      "品質": 4199,
      "售電動": 4200,
      "啄木": 4201,
      "因應": 4202,
      "地址": 4203,
      "地震": 4204,
      "坡肉": 4205,
      "基進": 4206,
      "報到": 4207,
      "場域": 4208,
      "外觀": 4209,
      "多少": 4210,
      "大T": 4211,
      "大幅": 4212,
      "大橋": 4213,
      "大道": 4214,
      "夫妻": 4215,
      "套房": 4216,
      "女友": 4217,
      "好地方": 4218,
      "如果": 4219,
      "姑婆": 4220,
      "威脅": 4221,
      "學期": 4222,
      "安排": 4223,
      "定再發文": 4224,
      "家長": 4225,
      "實體": 4226,
      "將持續": 4227,
      "專業": 4228,
      "尊重": 4229,
      "尋其他": 4230,
      "對於": 4231,
      "導覽": 4232,
      "小孩": 4233,
      "小校": 4234,
      "小組": 4235,
      "小啄木": 4236,
      "就業": 4237,
      "屬於": 4238,
      "山頭": 4239,
      "山佮海": 4240,
      "市集": 4241,
      "帶你": 4242,
      "帶走": 4243,
      "帶點": 4244,
      "幫忙": 4245,
      "平台": 4246,
      "年4月": 4247,
      "座位": 4248,
      "廂型車": 4249,
      "廟會": 4250,
      "延托": 4251,
      "引起": 4252,
      "很多": 4253,
      "後再": 4254,
      "後將": 4255,
      "後翻": 4256,
      "徒刑": 4257,
      "從哪邊": 4258,
      "必須": 4259,
      "急救": 4260,
      "性交": 4261,
      "性侵": 4262,
      "想像": 4263,
      "意義": 4264,
      "意識": 4265,
      "成本": 4266,
      "成果": 4267,
      "把關": 4268,
      "折扣": 4269,
      "抹黑": 4270,
      "挑釁": 4271,
      "捕蛇": 4272,
      "排除": 4273,
      "提煉": 4274,
      "搶修": 4275,
      "撤除": 4276,
      "據點": 4277,
      "擺脫": 4278,
      "攜帶": 4279,
      "收錄": 4280,
      "改編": 4281,
      "整體": 4282,
      "文資": 4283,
      "料理": 4284,
      "新橋": 4285,
      "新高": 4286,
      "方案": 4287,
      "於20": 4288,
      "旁的": 4289,
      "日子": 4290,
      "春露": 4291,
      "時代": 4292,
      "時報": 4293,
      "會議": 4294,
      "會贈品": 4295,
      "會水桶30天以上": 4296,
      "有意": 4297,
      "有關": 4298,
      "有使用": 4299,
      "有民眾": 4300,
      "有需要": 4301,
      "有不少": 4302,
      "本文": 4303,
      "本板": 4304,
      "本案": 4305,
      "東坡肉": 4306,
      "板務": 4307,
      "林間": 4308,
      "校區": 4309,
      "根據": 4310,
      "此次": 4311,
      "死1傷": 4312,
      "殯儀館": 4313,
      "水庫": 4314,
      "活膚": 4315,
      "消費": 4316,
      "添加": 4317,
      "減少": 4318,
      "滋潤": 4319,
      "炒蛋": 4320,
      "為限": 4321,
      "烏山頭": 4322,
      "焦屍": 4323,
      "營業": 4324,
      "版規": 4325,
      "獲得": 4326,
      "玄饌": 4327,
      "玩水": 4328,
      "理由": 4329,
      "琨諺": 4330,
      "當下": 4331,
      "當日": 4332,
      "當事人": 4333,
      "痕跡": 4334,
      "癲癇": 4335,
      "登場": 4336,
      "發起": 4337,
      "白河": 4338,
      "百年": 4339,
      "的美": 4340,
      "的感覺": 4341,
      "的範例": 4342,
      "直呼": 4343,
      "睡覺": 4344,
      "研磨": 4345,
      "碗機": 4346,
      "禮盒": 4347,
      "科技": 4348,
      "稱號": 4349,
      "空地": 4350,
      "立即": 4351,
      "競爭": 4352,
      "竹節": 4353,
      "第5次": 4354,
      "等等": 4355,
      "精神": 4356,
      "終於": 4357,
      "結果": 4358,
      "統一": 4359,
      "維護": 4360,
      "網美": 4361,
      "緊急": 4362,
      "編輯": 4363,
      "縣市": 4364,
      "繁衍": 4365,
      "翻車": 4366,
      "老闆": 4367,
      "者水桶": 4368,
      "聚焦": 4369,
      "聲明": 4370,
      "肇事": 4371,
      "肥胖": 4372,
      "自介": 4373,
      "自動": 4374,
      "自負": 4375,
      "興中街": 4376,
      "萬元": 4377,
      "萬于甄": 4378,
      "蔡旺詮": 4379,
      "薑絲": 4380,
      "虎姑婆": 4381,
      "蛇窟": 4382,
      "蛇類": 4383,
      "被丟包": 4384,
      "裡面": 4385,
      "視情況": 4386,
      "解決": 4387,
      "評價": 4388,
      "詳情": 4389,
      "談判": 4390,
      "請標": 4391,
      "請自行": 4392,
      "謝光本": 4393,
      "議程": 4394,
      "議題": 4395,
      "販賣": 4396,
      "贊助": 4397,
      "超級": 4398,
      "車票": 4399,
      "車輛": 4400,
      "轉為": 4401,
      "辦理": 4402,
      "農業": 4403,
      "農藥": 4404,
      "近20": 4405,
      "送出": 4406,
      "通報": 4407,
      "連撞": 4408,
      "週日": 4409,
      "過去": 4410,
      "過山佮海": 4411,
      "遺址": 4412,
      "邀請": 4413,
      "郭男": 4414,
      "鄭琨諺": 4415,
      "醬汁": 4416,
      "錢包": 4417,
      "開幕": 4418,
      "開張": 4419,
      "間店": 4420,
      "附上": 4421,
      "陳仁華": 4422,
      "階段": 4423,
      "隨看": 4424,
      "隨著": 4425,
      "隨點": 4426,
      "雙標題": 4427,
      "雜草": 4428,
      "青春露": 4429,
      "願意": 4430,
      "類的": 4431,
      "飼料": 4432,
      "首店": 4433,
      "黑色": 4434,
      "點數卡": 4435,
      "）、": 4436,
      "）」": 4437,
      "）：": 4438,
      "台南人": 4439,
      "台南板規": 4440,
      "台南安南區": 4441,
      "台南玉井": 4442,
      "台南即時": 4443,
      "台南週末": 4444,
      "台南鐵路地下化": 4445,
      "台南高分": 4446,
      "2000": 4447,
      "交易沒有": 4448,
      "2026": 4449,
      "台南市區": 4450,
      "台南市各式": 4451,
      "標題分類": 4452,
      "新聞網": 4453,
      "二手物品": 4454,
      "二手寵物": 4455,
      "18日": 4456,
      "17時": 4457,
      "活動整理": 4458,
      "置底推文": 4459,
      "1517": 4460,
      "14天": 4461,
      "125": 4462,
      "票券卡片類": 4463,
      "50天": 4464,
      "ort": 4465,
      "LIN9": 4466,
      "直接水桶": 4467,
      "Sports": 4468,
      "────────────────": 4469,
      "098": 4470,
      "歷史建築": 4471,
      "文化局": 4472,
      "5月21": 4473,
      "5月20日": 4474,
      "帳號部": 4475,
      "安平或中西區": 4476,
      "政治人物": 4477,
      "打造台南": 4478,
      "════════": 4479,
      "ark": 4480,
      "lian": 4481,
      "學生宿舍": 4482,
      "————": 4483,
      "紀念幣": 4484,
      "違反板規": 4485,
      "3650天": 4486,
      "671戶": 4487,
      "商品卡": 4488,
      "設計的": 4489,
      "設計粽子三吃": 4490,
      "交通部": 4491,
      "教育大樓": 4492,
      "chen": 4493,
      "爭取文化部": 4494,
      "爭取前瞻": 4495,
      "重複PO": 4496,
      "zhang": 4497,
      "成功請找": 4498,
      "手機隨點": 4499,
      "粉紅泡泡": 4500,
      "images": 4501,
      "不會太": 4502,
      "875": 4503,
      "aspx": 4504,
      "友善環境": 4505,
      "友善職場": 4506,
      "停車場的": 4507,
      "中華東": 4508,
      "功能正常": 4509,
      "威權遺址": 4510,
      "定期會": 4511,
      "股東會贈品": 4512,
      "520愛情許願池": 4513,
      "60天": 4514,
      "不得重複PO": 4515,
      "仁德區": 4516,
      "同期新高": 4517,
      "宣布投入": 4518,
      "市長黃偉哲表示": 4519,
      "cna": 4520,
      "安南醫院": 4521,
      "展示教育大樓": 4522,
      "山上花園": 4523,
      "意者站內信": 4524,
      "自由時報": 4525,
      "被害人": 4526,
      "台南市南區興中街": 4527,
      "台南市美術館1館": 4528,
      "5047843": 4529,
      "2館3樓展覽室": 4530,
      "4座立": 4531,
      "VIP": 4532,
      "今下午3點": 4533,
      "佬點手作": 4534,
      "國立台灣文學": 4535,
      "太陽能": 4536,
      "海外首店": 4537,
      "請務必詳閱台南板規": 4538,
      "冰箱廢四機回收聯單": 4539,
      "5zw": 4540,
      "代步機車": 4541,
      "國際博物館": 4542,
      "嬰兒床": 4543,
      "請推本文": 4544,
      "風吹過山佮海": 4545,
      "馬路睡覺": 4546,
      "15年來同期新高": 4547,
      "台灣歷史博物館展示教育大樓": 4548,
      "台語翻譯ê路與": 4549,
      "5y9k": 4550,
      "cdn2": 4551,
      "meee": 4552,
      "不老松": 4553,
      "休旅車": 4554,
      "內參民調": 4555,
      "內政部": 4556,
      "到貨量": 4557,
      "售電動研磨": 4558,
      "定再發文唷": 4559,
      "尋其他管道": 4560,
      "撤除威權遺址": 4561,
      "有使用痕跡": 4562,
      "殯儀館旁": 4563,
      "活膚霜": 4564,
      "烏山頭水庫": 4565,
      "竹節蟲": 4566,
      "第5次定期會": 4567,
      "肥胖城市": 4568,
      "近20億元": 4569,
      "交易沒有成功請找": 4570,
      "手機隨點隨看": 4571,
      "山上花園水道博物館": 4572,
      "佬點手作弁當": 4573,
      "國立台灣文學館": 4574,
      "請務必詳閱台南板規定再發文唷": 4575,
      "馬路睡覺哥": 4576,
      "台語翻譯ê路與夢": 4577,
      "售電動研磨機": 4578,
      "交易沒有成功請找尋其他管道": 4579,
      "&[": 4580,
      ")、": 4581,
      "+[": 4582,
      "03": 4583,
      "1名": 4584,
      "1萬": 4585,
      "1死1傷": 4586,
      "2S": 4587,
      "2Z": 4588,
      "2時": 4589,
      "2樓展覽室": 4590,
      "34": 4591,
      "3A": 4592,
      "3K": 4593,
      "3億": 4594,
      "3月": 4595,
      "41": 4596,
      "4E": 4597,
      "4b": 4598,
      "4t": 4599,
      "4人": 4600,
      "4車": 4601,
      "450": 4602,
      "5A": 4603,
      "5人": 4604,
      "5度": 4605,
      "5萬": 4606,
      "546": 4607,
      "62": 4608,
      "63": 4609,
      "6車": 4610,
      "72": 4611,
      "7天": 4612,
      "84": 4613,
      "98": 4614,
      ":)": 4615,
      "??": 4616,
      "?」": 4617,
      "A4": 4618,
      "AY": 4619,
      "AUB": 4620,
      "B0": 4621,
      "B1": 4622,
      "BB": 4623,
      "BO": 4624,
      "BP": 4625,
      "B尿布": 4626,
      "CD": 4627,
      "EB": 4628,
      "EH": 4629,
      "GK": 4630,
      "GU": 4631,
      "Goo": 4632,
      "HM": 4633,
      "Hi": 4634,
      "LD": 4635,
      "LY": 4636,
      "La": 4637,
      "Nun": 4638,
      "New": 4639,
      "NB尿布": 4640,
      "OJ": 4641,
      "OO": 4642,
      "Oc": 4643,
      "Pl": 4644,
      "Pix": 4645,
      "RCD": 4646,
      "ROJ": 4647,
      "ST": 4648,
      "SY": 4649,
      "Sat": 4650,
      "TN": 4651,
      "The": 4652,
      "UW": 4653,
      "Und": 4654,
      "VC": 4655,
      "XQ": 4656,
      "YO": 4657,
      "Y09": 4658,
      "Zu": 4659,
      "]&[": 4660,
      "ab": 4661,
      "ap": 4662,
      "cN": 4663,
      "cu": 4664,
      "cv": 4665,
      "ea": 4666,
      "el": 4667,
      "g8": 4668,
      "gb": 4669,
      "gm": 4670,
      "gs": 4671,
      "gz": 4672,
      "ibe": 4673,
      "ju": 4674,
      "ko": 4675,
      "liu": 4676,
      "ms": 4677,
      "nq": 4678,
      "nort": 4679,
      "pe": 4680,
      "pw": 4681,
      "pig": 4682,
      "pho": 4683,
      "qh": 4684,
      "qiu": 4685,
      "ry": 4686,
      "rz": 4687,
      "sou": 4688,
      "see": 4689,
      "tf": 4690,
      "uy": 4691,
      "vv": 4692,
      "wd": 4693,
      "xR": 4694,
      "xi": 4695,
      "y0": 4696,
      "╬═══": 4697,
      "╭╯": 4698,
      "》，": 4699,
      "一些": 4700,
      "一份": 4701,
      "一併": 4702,
      "一包": 4703,
      "一口": 4704,
      "一審": 4705,
      "一對": 4706,
      "一年": 4707,
      "一條": 4708,
      "一篇文章": 4709,
      "一日一篇": 4710,
      "七龍": 4711,
      "三樣": 4712,
      "三犯": 4713,
      "上的": 4714,
      "下來": 4715,
      "下去": 4716,
      "下載": 4717,
      "下面": 4718,
      "不一": 4719,
      "不介": 4720,
      "不住": 4721,
      "不便": 4722,
      "不再": 4723,
      "不准": 4724,
      "不另": 4725,
      "不吝": 4726,
      "不斷": 4727,
      "不當": 4728,
      "不禁": 4729,
      "不環保": 4730,
      "不買單": 4731,
      "且加": 4732,
      "且違規文章": 4733,
      "世凱": 4734,
      "並非": 4735,
      "中信": 4736,
      "中山": 4737,
      "中式": 4738,
      "中間": 4739,
      "中險": 4740,
      "之一": 4741,
      "之移除": 4742,
      "也要": 4743,
      "也請勿": 4744,
      "乳內": 4745,
      "乳牙": 4746,
      "乾淨": 4747,
      "了幾": 4748,
      "了解": 4749,
      "了一下": 4750,
      "二審": 4751,
      "交叉": 4752,
      "交社": 4753,
      "京都": 4754,
      "亮點": 4755,
      "人口": 4756,
      "人房": 4757,
      "仍下得不夠": 4758,
      "代發": 4759,
      "代碼": 4760,
      "代買": 4761,
      "以內": 4762,
      "以前": 4763,
      "以往": 4764,
      "但不會": 4765,
      "住處": 4766,
      "你要": 4767,
      "依法": 4768,
      "依潔": 4769,
      "依然": 4770,
      "便利": 4771,
      "促進": 4772,
      "促撤除威權遺址": 4773,
      "俊達": 4774,
      "俊鋒": 4775,
      "保存": 4776,
      "保持": 4777,
      "信箱": 4778,
      "假釋": 4779,
      "偏鄉": 4780,
      "停28": 4781,
      "側翻": 4782,
      "備份": 4783,
      "傳出": 4784,
      "傳送": 4785,
      "傷者": 4786,
      "傷重": 4787,
      "像是": 4788,
      "儂衝": 4789,
      "億實": 4790,
      "光澤": 4791,
      "內用": 4792,
      "全台": 4793,
      "全市": 4794,
      "全數": 4795,
      "全校": 4796,
      "全都有": 4797,
      "兩個月": 4798,
      "公路": 4799,
      "公頃": 4800,
      "其餘": 4801,
      "兼顧": 4802,
      "再建": 4803,
      "再麻": 4804,
      "凱旋": 4805,
      "出清": 4806,
      "出處": 4807,
      "出走": 4808,
      "出具體": 4809,
      "刀性侵": 4810,
      "分別": 4811,
      "分校": 4812,
      "分許": 4813,
      "切勿": 4814,
      "刊登": 4815,
      "初衷": 4816,
      "判14年": 4817,
      "則是": 4818,
      "剩餘": 4819,
      "創作": 4820,
      "力求": 4821,
      "力發": 4822,
      "加入": 4823,
      "加重": 4824,
      "動物": 4825,
      "動線": 4826,
      "務站": 4827,
      "募集": 4828,
      "北安": 4829,
      "區處": 4830,
      "十餘": 4831,
      "千萬": 4832,
      "午節": 4833,
      "協助": 4834,
      "南北": 4835,
      "卡儂衝": 4836,
      "原本": 4837,
      "去哪裡": 4838,
      "參觀": 4839,
      "口感": 4840,
      "口67": 4841,
      "古都": 4842,
      "只能": 4843,
      "叫醒": 4844,
      "可見": 4845,
      "可麗": 4846,
      "可使用": 4847,
      "可面交": 4848,
      "可上訴": 4849,
      "可來信": 4850,
      "台史": 4851,
      "台鐵": 4852,
      "吃肉": 4853,
      "各種": 4854,
      "合力": 4855,
      "同樣": 4856,
      "同步": 4857,
      "名檔": 4858,
      "名額": 4859,
      "吳依潔": 4860,
      "吳俊鋒": 4861,
      "味甜粽": 4862,
      "咖波": 4863,
      "品級": 4864,
      "哇喜": 4865,
      "哺乳內": 4866,
      "售聯": 4867,
      "售寵物": 4868,
      "問券": 4869,
      "啟動": 4870,
      "善用": 4871,
      "喜好": 4872,
      "喜歡": 4873,
      "單日": 4874,
      "噓文": 4875,
      "嚴重": 4876,
      "回歸": 4877,
      "回覆": 4878,
      "圖由": 4879,
      "圖膠": 4880,
      "團結": 4881,
      "在河樂廣場": 4882,
      "在下面": 4883,
      "地的": 4884,
      "基進黨": 4885,
      "報價": 4886,
      "報告": 4887,
      "壓券": 4888,
      "外套": 4889,
      "外帶": 4890,
      "多贏": 4891,
      "多項": 4892,
      "大學": 4893,
      "大容": 4894,
      "大戰": 4895,
      "大醫院": 4896,
      "天內": 4897,
      "天然": 4898,
      "失去": 4899,
      "套組": 4900,
      "女嬰": 4901,
      "好吃": 4902,
      "如下": 4903,
      "如有": 4904,
      "季節": 4905,
      "學城": 4906,
      "學府": 4907,
      "完全": 4908,
      "官田": 4909,
      "官網": 4910,
      "定的": 4911,
      "家業者": 4912,
      "實習": 4913,
      "實踐": 4914,
      "專板": 4915,
      "尊爵": 4916,
      "尋找": 4917,
      "對此": 4918,
      "小新": 4919,
      "小里": 4920,
      "小零": 4921,
      "就很": 4922,
      "局處": 4923,
      "展現": 4924,
      "山步道": 4925,
      "崙智慧": 4926,
      "已售出": 4927,
      "帆船": 4928,
      "希望": 4929,
      "帶入": 4930,
      "帶動": 4931,
      "幫助": 4932,
      "平日": 4933,
      "年的": 4934,
      "幾次": 4935,
      "幾的物品": 4936,
      "廢文": 4937,
      "彈性": 4938,
      "影判14年": 4939,
      "後仍": 4940,
      "後站": 4941,
      "後背": 4942,
      "徐裕": 4943,
      "從醃製": 4944,
      "復電": 4945,
      "德章": 4946,
      "德陽": 4947,
      "必要": 4948,
      "忍不住": 4949,
      "快速": 4950,
      "怎麼": 4951,
      "性或": 4952,
      "情緒": 4953,
      "惡狼": 4954,
      "想問": 4955,
      "想換": 4956,
      "意外": 4957,
      "意的": 4958,
      "意寶寶": 4959,
      "感受": 4960,
      "懷疑": 4961,
      "或徵求": 4962,
      "或寵物": 4963,
      "手工": 4964,
      "打卡": 4965,
      "批評": 4966,
      "批像福壽螺卵": 4967,
      "技能": 4968,
      "拍攝": 4969,
      "拍照": 4970,
      "拚選": 4971,
      "招生": 4972,
      "拼接": 4973,
      "拼圖膠": 4974,
      "持刀性侵": 4975,
      "指壓券": 4976,
      "按大T": 4977,
      "捕捉": 4978,
      "掀床": 4979,
      "採用": 4980,
      "接受": 4981,
      "接連": 4982,
      "接高雄": 4983,
      "控制": 4984,
      "推運動健康": 4985,
      "換公仔": 4986,
      "撲滅": 4987,
      "擔任": 4988,
      "擬參選人": 4989,
      "攜手": 4990,
      "攜13家": 4991,
      "支援": 4992,
      "收到": 4993,
      "收費": 4994,
      "改革": 4995,
      "政黨": 4996,
      "教具": 4997,
      "教練": 4998,
      "整合": 4999,
      "文居": 5000,
      "文末": 5001,
      "斑駁": 5002,
      "新樓": 5003,
      "新生": 5004,
      "新的": 5005,
      "新學生宿舍": 5006,
      "於19": 5007,
      "於地方": 5008,
      "於板上": 5009,
      "旋轉": 5010,
      "族健身": 5011,
      "日治": 5012,
      "明亮": 5013,
      "星際": 5014,
      "是美": 5015,
      "時候": 5016,
      "時程": 5017,
      "晉億實": 5018,
      "晚間": 5019,
      "景區": 5020,
      "更新": 5021,
      "更有": 5022,
      "曾俊達": 5023,
      "最大": 5024,
      "最終": 5025,
      "有無": 5026,
      "有線": 5027,
      "木質": 5028,
      "未使用": 5029,
      "本屆": 5030,
      "朱鸝": 5031,
      "東門": 5032,
      "東停28": 5033,
      "林內": 5034,
      "果菜": 5035,
      "查獲": 5036,
      "校舍": 5037,
      "校際": 5038,
      "根本": 5039,
      "格式": 5040,
      "案發": 5041,
      "桌椅": 5042,
      "條例": 5043,
      "條文": 5044,
      "棲地": 5045,
      "業配": 5046,
      "標準": 5047,
      "橫跨": 5048,
      "檢方": 5049,
      "檯燈": 5050,
      "權益": 5051,
      "正式": 5052,
      "正確": 5053,
      "正韓": 5054,
      "歷程": 5055,
      "每日": 5056,
      "比林俊憲": 5057,
      "水果": 5058,
      "水機": 5059,
      "水交社": 5060,
      "水十餘": 5061,
      "永桶": 5062,
      "永續": 5063,
      "求助": 5064,
      "汙染": 5065,
      "池市民": 5066,
      "沈男": 5067,
      "沙崙智慧": 5068,
      "河街": 5069,
      "油膩": 5070,
      "法務站": 5071,
      "活化": 5072,
      "流失": 5073,
      "浪板": 5074,
      "海安": 5075,
      "消暑": 5076,
      "清爽": 5077,
      "湯哥": 5078,
      "湯德章": 5079,
      "準備": 5080,
      "滿意寶寶": 5081,
      "漂亮": 5082,
      "漸炎熱": 5083,
      "濱海": 5084,
      "火勢": 5085,
      "火場": 5086,
      "炸得": 5087,
      "烏龜": 5088,
      "烘碗機": 5089,
      "無罪": 5090,
      "無預": 5091,
      "焢肉": 5092,
      "營運": 5093,
      "爸爸": 5094,
      "版友": 5095,
      "版面": 5096,
      "特展": 5097,
      "狀態": 5098,
      "獎項": 5099,
      "玉山國小": 5100,
      "玩台南": 5101,
      "珍貴": 5102,
      "珠筆": 5103,
      "現代": 5104,
      "現金": 5105,
      "理念": 5106,
      "理想": 5107,
      "琺瑯": 5108,
      "環河街": 5109,
      "瓷自動": 5110,
      "甚者": 5111,
      "生命": 5112,
      "產自": 5113,
      "用到": 5114,
      "用餐": 5115,
      "用規定": 5116,
      "用不到": 5117,
      "用貼圖": 5118,
      "男遭": 5119,
      "留任": 5120,
      "留意": 5121,
      "留言": 5122,
      "畢業": 5123,
      "異議": 5124,
      "當初": 5125,
      "當地": 5126,
      "當然": 5127,
      "當鋪": 5128,
      "疑似": 5129,
      "疑因地下電纜故障": 5130,
      "登記": 5131,
      "發作": 5132,
      "的信": 5133,
      "的實": 5134,
      "的那": 5135,
      "的部": 5136,
      "的風": 5137,
      "的空間": 5138,
      "的疑慮": 5139,
      "的招牌": 5140,
      "的遊憩": 5141,
      "的當鋪": 5142,
      "盛產": 5143,
      "直播": 5144,
      "看完": 5145,
      "真正": 5146,
      "眷村": 5147,
      "眼線": 5148,
      "眼鏡": 5149,
      "眼檯燈": 5150,
      "眾鳥": 5151,
      "知與": 5152,
      "矽藻": 5153,
      "研判": 5154,
      "確切": 5155,
      "確認": 5156,
      "福男": 5157,
      "私下": 5158,
      "私信": 5159,
      "科學城": 5160,
      "程序": 5161,
      "穩定": 5162,
      "立刻": 5163,
      "站起來": 5164,
      "童鞋": 5165,
      "童樂園": 5166,
      "端午節": 5167,
      "第一": 5168,
      "第二": 5169,
      "等人": 5170,
      "筱薇": 5171,
      "節能": 5172,
      "築巢": 5173,
      "簽名檔": 5174,
      "紀錄": 5175,
      "給我": 5176,
      "絮夢": 5177,
      "統計": 5178,
      "綠色": 5179,
      "綠內參民調": 5180,
      "缺口67": 5181,
      "美翻": 5182,
      "美食": 5183,
      "翻4車": 5184,
      "而是": 5185,
      "聯絡": 5186,
      "聲請": 5187,
      "能力": 5188,
      "臨床": 5189,
      "自產自": 5190,
      "至少": 5191,
      "至板上": 5192,
      "臺灣": 5193,
      "與人": 5194,
      "與市民": 5195,
      "舉辦": 5196,
      "舊橋": 5197,
      "艦園區": 5198,
      "花椰": 5199,
      "英文": 5200,
      "茹絮夢": 5201,
      "莖酵": 5202,
      "葉提煉": 5203,
      "蔡筱薇": 5204,
      "蘇福男": 5205,
      "融入": 5206,
      "行兇": 5207,
      "行政": 5208,
      "衝擊": 5209,
      "衣服": 5210,
      "衣櫃": 5211,
      "衣物": 5212,
      "衣洋裝": 5213,
      "被撞": 5214,
      "被輾": 5215,
      "被批像福壽螺卵": 5216,
      "製衣": 5217,
      "複線": 5218,
      "要有": 5219,
      "要吃什麼": 5220,
      "要去哪裡": 5221,
      "角色": 5222,
      "記得": 5223,
      "訪台南": 5224,
      "設備": 5225,
      "設定": 5226,
      "設置": 5227,
      "詳談": 5228,
      "認識": 5229,
      "調味": 5230,
      "請益": 5231,
      "請使用": 5232,
      "請修改": 5233,
      "請大家": 5234,
      "請在下面": 5235,
      "請記得": 5236,
      "證明": 5237,
      "護眼檯燈": 5238,
      "讓民眾": 5239,
      "豆皮": 5240,
      "赫見": 5241,
      "超像一堆": 5242,
      "趕快": 5243,
      "趨勢": 5244,
      "跌倒": 5245,
      "距離": 5246,
      "路旁": 5247,
      "路邊": 5248,
      "路中險": 5249,
      "跳蚤": 5250,
      "躺臥": 5251,
      "躺路中險": 5252,
      "車道": 5253,
      "轉入": 5254,
      "轉貼": 5255,
      "近全新": 5256,
      "近幾年": 5257,
      "迪卡儂衝": 5258,
      "逐漸炎熱": 5259,
      "這種": 5260,
      "通車": 5261,
      "通用規定": 5262,
      "連任": 5263,
      "連續": 5264,
      "連接高雄": 5265,
      "週一": 5266,
      "週六": 5267,
      "進場": 5268,
      "進一步": 5269,
      "遊客": 5270,
      "運河": 5271,
      "選項": 5272,
      "還錄": 5273,
      "還下得不夠": 5274,
      "都會": 5275,
      "配合": 5276,
      "酒後": 5277,
      "重現": 5278,
      "重要": 5279,
      "量後背": 5280,
      "金煌": 5281,
      "金股東紀念品": 5282,
      "銀髮": 5283,
      "鋼珠筆": 5284,
      "錯誤": 5285,
      "鐵鍋": 5286,
      "鑄鐵鍋": 5287,
      "門票": 5288,
      "門號": 5289,
      "開山": 5290,
      "閒聊": 5291,
      "防曬": 5292,
      "阿姨": 5293,
      "阿湯哥": 5294,
      "限制": 5295,
      "除了": 5296,
      "陳姓男子": 5297,
      "陶瓷自動": 5298,
      "隨即": 5299,
      "雙春": 5300,
      "雙軌": 5301,
      "雞肉": 5302,
      "雨還下得不夠": 5303,
      "電影": 5304,
      "電視": 5305,
      "電話": 5306,
      "電咖波": 5307,
      "面對": 5308,
      "面積": 5309,
      "響應": 5310,
      "須知與": 5311,
      "領回": 5312,
      "領股東紀念品": 5313,
      "頭部": 5314,
      "類似": 5315,
      "類型": 5316,
      "類交易": 5317,
      "風味": 5318,
      "風力發": 5319,
      "風景區": 5320,
      "風衣洋裝": 5321,
      "食品級": 5322,
      "飯桌": 5323,
      "飲水機": 5324,
      "養成": 5325,
      "餐會": 5326,
      "餵哺乳內": 5327,
      "首篇": 5328,
      "驚險": 5329,
      "體育": 5330,
      "高度": 5331,
      "鳥類": 5332,
      "鳥會理事長": 5333,
      "麻豆": 5334,
      "黨內": 5335,
      "黨工": 5336,
      "黨部": 5337,
      "龍山": 5338,
      "！」": 5339,
      "）～": 5340,
      "：「": 5341,
      "？」": 5342,
      "=====": 5343,
      "台南新": 5344,
      "台南地方": 5345,
      "台南板友": 5346,
      "台南生活": 5347,
      "台南鳳梨": 5348,
      "台南就是": 5349,
      "台南綠竹筍": 5350,
      "台南加碼": 5351,
      "台南水道博物館": 5352,
      "台南最高": 5353,
      "台南衝撞": 5354,
      "台南爭取文化部": 5355,
      "台南區處": 5356,
      "台南推運動健康": 5357,
      "台南運河": 5358,
      "台南黨部": 5359,
      "---": 5360,
      "204": 5361,
      "2021": 5362,
      "2029": 5363,
      "cover": 5364,
      "ime": 5365,
      "ana": 5366,
      "and": 5367,
      "ance": 5368,
      "台南市安南區": 5369,
      "台南市北區": 5370,
      "台南市安平區": 5371,
      "台南市文化局": 5372,
      "台南市仁德區": 5373,
      "文章內": 5374,
      "文章因": 5375,
      "文章代碼": 5376,
      "使用的": 5377,
      "內容較": 5378,
      "徵求冷氣": 5379,
      "10月": 5380,
      "10歲": 5381,
      "10萬顆": 5382,
      "199": 5383,
      "=======": 5384,
      "違規之": 5385,
      "違規處理": 5386,
      "板主可": 5387,
      "板主群": 5388,
      "二手兒童": 5389,
      "二手代步機車": 5390,
      "二手女嬰": 5391,
      "17日": 5392,
      "150": 5393,
      "12699": 5394,
      "相關人": 5395,
      "相關特色": 5396,
      "iting": 5397,
      "16日": 5398,
      "en6": 5399,
      "發文前須知與": 5400,
      "記者吳俊鋒": 5401,
      "記者蘇福男": 5402,
      "推文中": 5403,
      "tic": 5404,
      "全新The": 5405,
      "23年": 5406,
      "民眾可": 5407,
      "21登場": 5408,
      "ercover": 5409,
      "26公分": 5410,
      "台灣基進": 5411,
      "禁止廣告": 5412,
      "詳細規定": 5413,
      "方式之移除": 5414,
      "南市再建": 5415,
      "南市鳥會理事長": 5416,
      "發生車禍": 5417,
      "自行刪文": 5418,
      "自行判斷": 5419,
      "需要的朋友": 5420,
      "政治宣傳": 5421,
      "議員初選": 5422,
      "鳳梨纖維": 5423,
      "agr": 5424,
      "├┬┴┬┴": 5425,
      "公分深": 5426,
      "公分高": 5427,
      "警方已": 5428,
      "警方調查": 5429,
      "林俊憲爭取前瞻": 5430,
      "包含時程": 5431,
      "--------------------------------": 5432,
      "shop": 5433,
      "中央政策": 5434,
      "市政府": 5435,
      "違反7": 5436,
      "366": 5437,
      "5566": 5438,
      "商品券": 5439,
      "未來將持續": 5440,
      "視為同一": 5441,
      "關廟綠竹筍": 5442,
      "關廟果菜": 5443,
      "永康區671戶": 5444,
      "alance": 5445,
      "整理果": 5446,
      "民進黨台南市長": 5447,
      "民進黨議員初選": 5448,
      "台南市中西區湯德章": 5449,
      "zheng": 5450,
      "駕駛稱": 5451,
      "┴┬┴┬┴┬┴┬┴┬┴┬┴┬┴┬┴┬┴┬┴┬┴┬┴┬┴┬┴┬┴┬": 5452,
      "一般新聞": 5453,
      "觀旅局表示": 5454,
      "集點類": 5455,
      "集點活動": 5456,
      "20250520": 5457,
      "═══╬═══": 5458,
      "PTT鄉民": 5459,
      "價格15年來同期新高": 5460,
      "優惠情報": 5461,
      "芒果青": 5462,
      "芒果味甜粽": 5463,
      "進入盛產": 5464,
      "護理人力缺口67": 5465,
      "比照交易文違規": 5466,
      "火車站奇美": 5467,
      "║║║║": 5468,
      "一天翻4車": 5469,
      "中華路": 5470,
      "媽媽餵哺乳內": 5471,
      "綠能科學城": 5472,
      "綠能相關特色": 5473,
      "聯合新聞網": 5474,
      "請務必選用": 5475,
      "CCY09": 5476,
      "同一個": 5477,
      "改善職場環境": 5478,
      "浪漫的": 5479,
      "觀光產業": 5480,
      "轉錄文章": 5481,
      "20日凌晨": 5482,
      "face大容": 5483,
      "黑冠麻鷺育雛": 5484,
      "不只是": 5485,
      "不只吃肉": 5486,
      "保留首篇": 5487,
      "南科托嬰中心": 5488,
      "同時也": 5489,
      "同期的一": 5490,
      "智慧寶寶": 5491,
      "法官認定": 5492,
      "總質詢5": 5493,
      "纖維製衣": 5494,
      "請見置底文": 5495,
      "台南市政府提供": 5496,
      "┴┼─┼┴┼─┼┴┼─┼┴┼─┼": 5497,
      "7326": 5498,
      "ixxa": 5499,
      "中午12": 5500,
      "女子還錄": 5501,
      "成長書桌": 5502,
      "攝影機": 5503,
      "最後一": 5504,
      "畫面曝": 5505,
      "百萬攜13家": 5506,
      "身體不適": 5507,
      "隧道全線": 5508,
      "雙人推車": 5509,
      "2023年4月": 5510,
      "5047877": 5511,
      "國民黨謝龍介": 5512,
      "Joie": 5513,
      "Joii": 5514,
      "guROJ": 5515,
      "ua4t": 5516,
      "仍未進入盛產": 5517,
      "免費入場": 5518,
      "完整者": 5519,
      "小時內": 5520,
      "尿布檯": 5521,
      "強制治療": 5522,
      "強制性交": 5523,
      "應該是": 5524,
      "研究所": 5525,
      "聯名外套": 5526,
      "聯名鋼珠筆": 5527,
      "降售4": 5528,
      "雖然天氣": 5529,
      "雞舍成新": 5530,
      "台南地院": 5531,
      "博物館節15天": 5532,
      "長榮女中設計粽子三吃": 5533,
      "來看看近期食記": 5534,
      "來看看近期遊記": 5535,
      "台南河樂廣場粉紅球池市民": 5536,
      "7jyk": 5537,
      "AI智慧寶寶": 5538,
      "SOP": 5539,
      "huang": 5540,
      "上午4": 5541,
      "修復1": 5542,
      "到場後": 5543,
      "可愛小零": 5544,
      "建立友善環境": 5545,
      "心臟中彈": 5546,
      "提貨券": 5547,
      "綜合報導": 5548,
      "編號幾的物品": 5549,
      "翻轉經典": 5550,
      "蜂蜜芒果味甜粽": 5551,
      "西門路": 5552,
      "護照計畫": 5553,
      "費用曝光": 5554,
      "送往麻豆": 5555,
      "長陳世凱": 5556,
      "開挖完成": 5557,
      "關鍵字": 5558,
      "雙層床": 5559,
      "電子報": 5560,
      "餐飲科": 5561,
      "記者蔡文居": 5562,
      "瑞峰國小明年": 5563,
      "118號": 5564,
      "2公尺臭青母": 5565,
      "3wguROJ": 5566,
      "Hanibe": 5567,
      "forms": 5568,
      "┬┴┬┴┤": 5569,
      "台電台南區處": 5570,
      "大橋火車站奇美": 5571,
      "大道1號": 5572,
      "女友目擊": 5573,
      "好地方蝦仁肉絲飯": 5574,
      "帶你玩台南": 5575,
      "把關市政": 5576,
      "收錄精華區": 5577,
      "會議便當": 5578,
      "有意願": 5579,
      "癲癇發作": 5580,
      "虎姑婆的當鋪": 5581,
      "連撞6車": 5582,
      "雜草火警": 5583,
      "台南安南區雞舍成新": 5584,
      "台南即時報導": 5585,
      "台南週末活動整理": 5586,
      "台南鐵路地下化隧道全線": 5587,
      "台南高分院": 5588,
      "151774": 5589,
      "5月21日起": 5590,
      "打造台南為": 5591,
      "lianpig": 5592,
      "交通部長陳世凱": 5593,
      "宣布投入民進黨議員初選": 5594,
      "台南市南區興中街118號": 5595,
      "海外首店在台南": 5596,
      "國際博物館日": 5597,
      "台灣歷史博物館展示教育大樓1樓": 5598,
      "不老松指壓券": 5599,
      "手機隨點隨看把關市政": 5600,
      "3Aua4t": 5601,
      "Nuna": 5602,
      "Play": 5603,
      "Pixsee": 5604,
      "RCD510": 5605,
      "STAUB": 5606,
      "SYSOP": 5607,
      "Undercover": 5608,
      "north": 5609,
      "photo": 5610,
      "soul": 5611,
      "七龍珠": 5612,
      "且加倍": 5613,
      "且違規文章全數": 5614,
      "中信金股東紀念品": 5615,
      "乳牙收納": 5616,
      "以往同期的一": 5617,
      "你要編號幾的物品": 5618,
      "假釋條款": 5619,
      "側翻全都有": 5620,
      "傷重不治": 5621,
      "再麻煩": 5622,
      "凱旋路口": 5623,
      "出走潮": 5624,
      "出具體辦法": 5625,
      "可麗露": 5626,
      "台史博": 5627,
      "哇喜米唐": 5628,
      "售聯電咖波": 5629,
      "售寵物陶瓷自動": 5630,
      "單日到貨量": 5631,
      "圖由台南市政府提供": 5632,
      "官田區": 5633,
      "尊爵銅": 5634,
      "小里肌": 5635,
      "帆船進場": 5636,
      "徐裕喬": 5637,
      "德陽艦園區": 5638,
      "拚選台南市長": 5639,
      "拼圖膠水十餘": 5640,
      "持刀性侵女子還錄": 5641,
      "按大T修改": 5642,
      "於地方有線": 5643,
      "族健身教練": 5644,
      "星際大戰": 5645,
      "晉億實業": 5646,
      "校際整合": 5647,
      "水交社文化園區": 5648,
      "沙崙智慧綠能科學城": 5649,
      "法務站長": 5650,
      "滿意寶寶NB尿布": 5651,
      "烏龜翻": 5652,
      "無預警": 5653,
      "琺瑯鑄鐵鍋": 5654,
      "男遭槍殺": 5655,
      "留言你要編號幾的物品": 5656,
      "的遊憩方式": 5657,
      "眾鳥繁衍": 5658,
      "矽藻土": 5659,
      "童樂園南科托嬰中心": 5660,
      "美翻了": 5661,
      "葉提煉纖維製衣": 5662,
      "被輾畫面曝": 5663,
      "要吃什麼好": 5664,
      "要去哪裡玩": 5665,
      "請在下面留言你要編號幾的物品": 5666,
      "躺路中險被輾畫面曝": 5667,
      "迪卡儂衝浪板": 5668,
      "量後背包": 5669,
      "銀髮族健身教練": 5670,
      "風力發電": 5671,
      "台南鳳梨不只吃肉": 5672,
      "台南就是一座": 5673,
      "台南綠竹筍仍未進入盛產": 5674,
      "台南加碼百萬攜13家": 5675,
      "台南水道博物館眾鳥繁衍": 5676,
      "台南衝撞駕駛稱": 5677,
      "台南爭取文化部補助": 5678,
      "二手兒童成長書桌": 5679,
      "二手女嬰衣服": 5680,
      "發文前須知與通用規定": 5681,
      "台灣基進台南黨部": 5682,
      "詳細規定請見置底文": 5683,
      "方式之移除計劃": 5684,
      "南市再建4座立": 5685,
      "南市鳥會理事長宣布投入民進黨議員初選": 5686,
      "需要的朋友請在下面留言你要編號幾的物品": 5687,
      "林俊憲爭取前瞻近20億元": 5688,
      "台南市中西區湯德章大道1號": 5689,
      "護理人力缺口672人": 5690,
      "媽媽餵哺乳內衣": 5691,
      "綠能相關特色景點": 5692,
      "CCY0927": 5693,
      "face大容量後背包": 5694,
      "ixxa尊爵銅": 5695,
      "JoiiSports": 5696,
      "聯名鋼珠筆套組": 5697,
      "博物館節15天活動": 5698,
      "台南河樂廣場粉紅球池市民不買單": 5699,
      "AI智慧寶寶攝影機": 5700,
      "可愛小零錢包": 5701,
      "心臟中彈被丟包": 5702,
      "蜂蜜芒果味甜粽創": 5703,
      "Hanibe雙層床": 5704,
      "大橋火車站奇美側": 5705,
      "台南鐵路地下化隧道全線開挖完成": 5706,
      "lianpig5566": 5707,
      "3Aua4tG": 5708,
      "且違規文章全數退文": 5709,
      "以往同期的一半": 5710,
      "售聯電咖波聯名鋼珠筆套組": 5711,
      "售寵物陶瓷自動飲水機": 5712,
      "拼圖膠水十餘包": 5713,
      "持刀性侵女子還錄影判14年": 5714,
      "於地方有線電視": 5715,
      "%，": 5716,
      ")」": 5717,
      ")：": 5718,
      "0A": 5719,
      "0天": 5720,
      "0公尺": 5721,
      "1C": 5722,
      "1G": 5723,
      "1T": 5724,
      "1具": 5725,
      "1日": 5726,
      "1開": 5727,
      "110": 5728,
      "115": 5729,
      "116": 5730,
      "1個月": 5731,
      "1樓展覽室": 5732,
      "2Q": 5733,
      "2T": 5734,
      "2a": 5735,
      "2m": 5736,
      "2件": 5737,
      "2個": 5738,
      "2輛": 5739,
      "250": 5740,
      "226": 5741,
      "2_1": 5742,
      "2VW": 5743,
      "3D": 5744,
      "3c": 5745,
      "3g": 5746,
      "3q": 5747,
      "3u": 5748,
      "3個": 5749,
      "3年": 5750,
      "3男": 5751,
      "3篇": 5752,
      "3頻": 5753,
      "320": 5754,
      "3億元": 5755,
      "3個百分點": 5756,
      "3366": 5757,
      "44": 5758,
      "4e": 5759,
      "4x": 5760,
      "4年": 5761,
      "4度": 5762,
      "4校": 5763,
      "4次": 5764,
      "4萬": 5765,
      "4起": 5766,
      "4點": 5767,
      "420": 5768,
      "4200元": 5769,
      "52": 5770,
      "53": 5771,
      "5D": 5772,
      "5R": 5773,
      "5h": 5774,
      "5v": 5775,
      "5x": 5776,
      "5點": 5777,
      "530": 5778,
      "516": 5779,
      "577": 5780,
      "543": 5781,
      "5億元": 5782,
      "6l": 5783,
      "6n": 5784,
      "6尾": 5785,
      "70": 5786,
      "79": 5787,
      "7E": 5788,
      "7R": 5789,
      "7號": 5790,
      "700元": 5791,
      "7gs": 5792,
      "83": 5793,
      "8折": 5794,
      "8號": 5795,
      "80元": 5796,
      "80公分": 5797,
      "8個百分點": 5798,
      "9N": 5799,
      "9n": 5800,
      "9日": 5801,
      "987": 5802,
      "935": 5803,
      "AC": 5804,
      "AP": 5805,
      "AW": 5806,
      "An": 5807,
      "Ali": 5808,
      "App": 5809,
      "BX": 5810,
      "Bi": 5811,
      "Big": 5812,
      "B4E": 5813,
      "Buy": 5814,
      "DW": 5815,
      "Da": 5816,
      "EN": 5817,
      "EP": 5818,
      "ER": 5819,
      "ET": 5820,
      "Ef": 5821,
      "FO": 5822,
      "Fi": 5823,
      "Fri": 5824,
      "Gy": 5825,
      "HZ": 5826,
      "I2": 5827,
      "I9": 5828,
      "II": 5829,
      "J9": 5830,
      "Ju": 5831,
      "Jan": 5832,
      "Jam": 5833,
      "KM": 5834,
      "KP": 5835,
      "KS": 5836,
      "LE": 5837,
      "LT": 5838,
      "Ld": 5839,
      "Lg": 5840,
      "Li": 5841,
      "Lx": 5842,
      "Lee": 5843,
      "Mf": 5844,
      "N5": 5845,
      "OA": 5846,
      "OD": 5847,
      "OM": 5848,
      "Ol": 5849,
      "Oq": 5850,
      "Orq": 5851,
      "Ptt": 5852,
      "Pro": 5853,
      "PVC": 5854,
      "Q3": 5855,
      "Q6": 5856,
      "QX": 5857,
      "Qc": 5858,
      "Qv": 5859,
      "RM": 5860,
      "RQ": 5861,
      "RX": 5862,
      "Ri": 5863,
      "Sa": 5864,
      "TC": 5865,
      "To": 5866,
      "Uh": 5867,
      "Um": 5868,
      "Uo": 5869,
      "Uu": 5870,
      "VT": 5871,
      "W7": 5872,
      "Wd": 5873,
      "Wi": 5874,
      "Wj": 5875,
      "Wed": 5876,
      "Xc": 5877,
      "YG": 5878,
      "YU": 5879,
      "Yk": 5880,
      "YAN": 5881,
      "ZE": 5882,
      "Zg": 5883,
      "Zj": 5884,
      "]、": 5885,
      "]+[": 5886,
      "_2_1": 5887,
      "aa": 5888,
      "ah": 5889,
      "ax": 5890,
      "ahe": 5891,
      "ave": 5892,
      "bW": 5893,
      "by": 5894,
      "blo": 5895,
      "balance": 5896,
      "c5": 5897,
      "dp": 5898,
      "dre": 5899,
      "eA": 5900,
      "eT": 5901,
      "eq": 5902,
      "ev": 5903,
      "fF": 5904,
      "fe": 5905,
      "fu": 5906,
      "fen": 5907,
      "fang": 5908,
      "g9": 5909,
      "gB": 5910,
      "gg": 5911,
      "her": 5912,
      "has": 5913,
      "id": 5914,
      "iBF": 5915,
      "ji": 5916,
      "jun": 5917,
      "kn": 5918,
      "kr": 5919,
      "ku": 5920,
      "ker": 5921,
      "kar": 5922,
      "lf": 5923,
      "luc": 5924,
      "mk": 5925,
      "ml": 5926,
      "mo": 5927,
      "mr": 5928,
      "mom": 5929,
      "mone": 5930,
      "n1": 5931,
      "na": 5932,
      "nn": 5933,
      "nana": 5934,
      "o4": 5935,
      "ob": 5936,
      "ot": 5937,
      "ow": 5938,
      "pu": 5939,
      "pptt": 5940,
      "pAC": 5941,
      "pUo": 5942,
      "qg": 5943,
      "qq": 5944,
      "qwq": 5945,
      "rl": 5946,
      "rod": 5947,
      "sO": 5948,
      "sl": 5949,
      "su": 5950,
      "sun": 5951,
      "tR": 5952,
      "tq": 5953,
      "ty": 5954,
      "today": 5955,
      "uo": 5956,
      "vD": 5957,
      "vN": 5958,
      "vy": 5959,
      "wr": 5960,
      "wal": 5961,
      "x1": 5962,
      "yL": 5963,
      "yg": 5964,
      "yh": 5965,
      "yt": 5966,
      "yy": 5967,
      "you": 5968,
      "yang": 5969,
      "zQ": 5970,
      "←」": 5971,
      "┬┤": 5972,
      "┬┴┬┴┬┴┬┴┬": 5973,
      "┬┴┬┴┬┴┬┴┬┴┬┴┬┴┬┴┬": 5974,
      "║═══╬═══": 5975,
      "╞════": 5976,
      "╭════": 5977,
      "╯╰": 5978,
      "╰════": 5979,
      "」！": 5980,
      "」。（": 5981,
      "一人": 5982,
      "一件": 5983,
      "一位": 5984,
      "一半": 5985,
      "一台": 5986,
      "一場": 5987,
      "一帶": 5988,
      "一度": 5989,
      "一文": 5990,
      "一格": 5991,
      "一點": 5992,
      "一學期": 5993,
      "一複線": 5994,
      "七天限一篇": 5995,
      "丈夫": 5996,
      "三天": 5997,
      "三層": 5998,
      "三角": 5999,
      "三越": 6000,
      "三聯單": 6001,
      "上前": 6002,
      "上有": 6003,
      "上班": 6004,
      "上衣": 6005,
      "上述": 6006,
      "不予": 6007,
      "不僅": 6008,
      "不勝": 6009,
      "不含": 6010,
      "不太": 6011,
      "不如": 6012,
      "不實": 6013,
      "不想": 6014,
      "不應": 6015,
      "不曉": 6016,
      "不為": 6017,
      "不膩": 6018,
      "不雅": 6019,
      "不造成": 6020,
      "不便宜": 6021,
      "不給予": 6022,
      "世代": 6023,
      "世界": 6024,
      "並不": 6025,
      "並在": 6026,
      "並妥": 6027,
      "並進": 6028,
      "並不是": 6029,
      "並且加倍": 6030,
      "中學": 6031,
      "中文學": 6032,
      "主人": 6033,
      "主動": 6034,
      "主委": 6035,
      "主張": 6036,
      "主揪": 6037,
      "主編": 6038,
      "主角": 6039,
      "主餐": 6040,
      "之前": 6041,
      "之外": 6042,
      "之用": 6043,
      "之間": 6044,
      "之相關": 6045,
      "之任何": 6046,
      "之需求": 6047,
      "之累犯": 6048,
      "之類的": 6049,
      "也可": 6050,
      "也對": 6051,
      "也已": 6052,
      "也很": 6053,
      "也能": 6054,
      "也請": 6055,
      "也須": 6056,
      "也可以": 6057,
      "亂板": 6058,
      "了不少": 6059,
      "事後": 6060,
      "事發": 6061,
      "事人員": 6062,
      "二仁": 6063,
      "二段": 6064,
      "人套房": 6065,
      "人鄭琨諺": 6066,
      "仁和": 6067,
      "今已": 6068,
      "今日": 6069,
      "介入": 6070,
      "仍在": 6071,
      "仍以前": 6072,
      "仔昌": 6073,
      "仔褲": 6074,
      "付方式": 6075,
      "仙境": 6076,
      "以來": 6077,
      "以利": 6078,
      "以後": 6079,
      "以全新": 6080,
      "以多少": 6081,
      "以太陽能": 6082,
      "任4屆": 6083,
      "企業": 6084,
      "但我": 6085,
      "但有": 6086,
      "但無": 6087,
      "但沒有": 6088,
      "位在": 6089,
      "位於": 6090,
      "位置": 6091,
      "位議員": 6092,
      "低汙染": 6093,
      "作亂": 6094,
      "你有": 6095,
      "併退文": 6096,
      "來源": 6097,
      "來的": 6098,
      "來自": 6099,
      "依序": 6100,
      "依殺": 6101,
      "依情況": 6102,
      "依帳號部": 6103,
      "保溫": 6104,
      "保不造成": 6105,
      "修小": 6106,
      "倉庫": 6107,
      "們看": 6108,
      "候補": 6109,
      "候選人": 6110,
      "候與市民": 6111,
      "偏愛": 6112,
      "做的": 6113,
      "停下": 6114,
      "僅約": 6115,
      "僅試": 6116,
      "價再": 6117,
      "儘速": 6118,
      "充分": 6119,
      "充滿": 6120,
      "兇器": 6121,
      "先生": 6122,
      "光三越": 6123,
      "免運": 6124,
      "入歷史": 6125,
      "入參考": 6126,
      "內嫩": 6127,
      "內有": 6128,
      "全區": 6129,
      "全國": 6130,
      "全家": 6131,
      "全是": 6132,
      "全民": 6133,
      "全長": 6134,
      "全面": 6135,
      "兩字": 6136,
      "兩支": 6137,
      "公休": 6138,
      "公佈": 6139,
      "公布": 6140,
      "公會": 6141,
      "公里": 6142,
      "六個月": 6143,
      "兼職": 6144,
      "冷凍": 6145,
      "凍粽": 6146,
      "出更": 6147,
      "出生": 6148,
      "出發": 6149,
      "出監": 6150,
      "出要": 6151,
      "出遊": 6152,
      "刀強": 6153,
      "分區": 6154,
      "分將": 6155,
      "分接": 6156,
      "分秒": 6157,
      "分量": 6158,
      "分因地下電纜故障": 6159,
      "列入": 6160,
      "列為": 6161,
      "利後": 6162,
      "到好": 6163,
      "到期": 6164,
      "到6月": 6165,
      "制度": 6166,
      "券型": 6167,
      "前方": 6168,
      "前面": 6169,
      "前廣場": 6170,
      "創傷": 6171,
      "創造": 6172,
      "力量": 6173,
      "助人力": 6174,
      "勇敢": 6175,
      "動調整": 6176,
      "包廂": 6177,
      "包恩": 6178,
      "化石": 6179,
      "化工程": 6180,
      "北寮": 6181,
      "區請標": 6182,
      "區中華路": 6183,
      "十分": 6184,
      "十萬顆": 6185,
      "半邊": 6186,
      "協辦": 6187,
      "南門": 6188,
      "原價": 6189,
      "原判": 6190,
      "原已": 6191,
      "去處": 6192,
      "參閱": 6193,
      "及雜": 6194,
      "及網路": 6195,
      "及永康區": 6196,
      "及創意": 6197,
      "及後翻": 6198,
      "友懷疑": 6199,
      "反而": 6200,
      "反覆": 6201,
      "反饋": 6202,
      "取唷": 6203,
      "受傷": 6204,
      "受歡迎": 6205,
      "口水": 6206,
      "口碑": 6207,
      "口號": 6208,
      "另有": 6209,
      "只好": 6210,
      "只寫": 6211,
      "只用": 6212,
      "召開": 6213,
      "可依": 6214,
      "可到": 6215,
      "可獲": 6216,
      "可用": 6217,
      "可幫忙": 6218,
      "可轉為": 6219,
      "台幣": 6220,
      "台斤": 6221,
      "台中文學": 6222,
      "各位": 6223,
      "各校": 6224,
      "各局處": 6225,
      "各類交易": 6226,
      "吊帶": 6227,
      "同意": 6228,
      "名字": 6229,
      "名的": 6230,
      "向前": 6231,
      "向中央": 6232,
      "向回饋": 6233,
      "含胎": 6234,
      "吸客": 6235,
      "吸心": 6236,
      "告不治": 6237,
      "味道": 6238,
      "呼應": 6239,
      "呼吸心": 6240,
      "和國民黨": 6241,
      "和烏山頭水庫": 6242,
      "和風力發電": 6243,
      "咖哩": 6244,
      "咬下去": 6245,
      "哥Joie": 6246,
      "哪一": 6247,
      "哪些": 6248,
      "哺育": 6249,
      "售500": 6250,
      "唯一複線": 6251,
      "商家": 6252,
      "商店": 6253,
      "問政": 6254,
      "啟用": 6255,
      "善安排": 6256,
      "單人的": 6257,
      "單人套房": 6258,
      "嘉義": 6259,
      "嚴懲": 6260,
      "四種": 6261,
      "囝仔昌": 6262,
      "回來": 6263,
      "回響": 6264,
      "固定": 6265,
      "圈含胎": 6266,
      "國文": 6267,
      "國會": 6268,
      "國風": 6269,
      "園殯儀館旁": 6270,
      "圓形": 6271,
      "圖案": 6272,
      "土地": 6273,
      "在此": 6274,
      "在比": 6275,
      "在維": 6276,
      "在5月": 6277,
      "在現場": 6278,
      "在精華區": 6279,
      "在園區": 6280,
      "在4月": 6281,
      "在這裡": 6282,
      "在路旁": 6283,
      "在推文中": 6284,
      "地區": 6285,
      "垃圾": 6286,
      "型公共": 6287,
      "型製冰機": 6288,
      "培訓": 6289,
      "培雅": 6290,
      "基隆": 6291,
      "報案": 6292,
      "報請": 6293,
      "場所": 6294,
      "塩埕": 6295,
      "境內": 6296,
      "增添": 6297,
      "增減": 6298,
      "壅塞": 6299,
      "壠文化園區": 6300,
      "士公會": 6301,
      "外傷": 6302,
      "外箱": 6303,
      "外酥": 6304,
      "外面": 6305,
      "多年": 6306,
      "多數": 6307,
      "多是": 6308,
      "多歲": 6309,
      "多區請標": 6310,
      "夢想": 6311,
      "大Q": 6312,
      "大小": 6313,
      "大廳": 6314,
      "大方": 6315,
      "大蛇": 6316,
      "大博物館": 6317,
      "大多是": 6318,
      "天使": 6319,
      "天啊": 6320,
      "天地": 6321,
      "夾帶": 6322,
      "奇哥Joie": 6323,
      "女孩": 6324,
      "女性": 6325,
      "好玩": 6326,
      "好的": 6327,
      "好幾年": 6328,
      "好去處": 6329,
      "如同": 6330,
      "姓駕駛": 6331,
      "姓丈夫": 6332,
      "娛樂": 6333,
      "子化": 6334,
      "存唯一複線": 6335,
      "季推薦": 6336,
      "孩子": 6337,
      "孵出": 6338,
      "學網": 6339,
      "學年度": 6340,
      "學會理事長": 6341,
      "它板": 6342,
      "守護": 6343,
      "安吉": 6344,
      "安自負": 6345,
      "完善": 6346,
      "宗棠": 6347,
      "宗霖": 6348,
      "定情": 6349,
      "定時": 6350,
      "定義": 6351,
      "客車": 6352,
      "宣導": 6353,
      "宣誓": 6354,
      "宣告不治": 6355,
      "宴會": 6356,
      "家庭": 6357,
      "家族": 6358,
      "家電": 6359,
      "家醫院": 6360,
      "實務": 6361,
      "實用貼圖": 6362,
      "審美": 6363,
      "審酌": 6364,
      "寫信": 6365,
      "寫的": 6366,
      "寫著": 6367,
      "寫出要": 6368,
      "封鎖": 6369,
      "將開放": 6370,
      "專屬": 6371,
      "專案": 6372,
      "對方": 6373,
      "對話": 6374,
      "對象": 6375,
      "對錯": 6376,
      "對板友": 6377,
      "對棲地": 6378,
      "導入": 6379,
      "小北": 6380,
      "小學": 6381,
      "小客車": 6382,
      "少滋潤": 6383,
      "少子化": 6384,
      "尤其": 6385,
      "就在": 6386,
      "就從哪邊": 6387,
      "局長陳": 6388,
      "居民": 6389,
      "屆台中文學": 6390,
      "展至": 6391,
      "展開": 6392,
      "山與": 6393,
      "川湘": 6394,
      "工具": 6395,
      "工藝": 6396,
      "左鎮": 6397,
      "左宗棠": 6398,
      "巨型": 6399,
      "差距": 6400,
      "已將": 6401,
      "已於": 6402,
      "已組": 6403,
      "已修正": 6404,
      "巴克": 6405,
      "市警": 6406,
      "師殺": 6407,
      "師長": 6408,
      "常見": 6409,
      "干擾": 6410,
      "年有": 6411,
      "年輕": 6412,
      "幾乎": 6413,
      "底下": 6414,
      "店到": 6415,
      "店前": 6416,
      "府前": 6417,
      "府城": 6418,
      "度會": 6419,
      "度分秒": 6420,
      "座標": 6421,
      "康是美": 6422,
      "廣建立友善環境": 6423,
      "延伸": 6424,
      "延遲": 6425,
      "建設": 6426,
      "建議": 6427,
      "建於19": 6428,
      "式民調": 6429,
      "式建築": 6430,
      "引導": 6431,
      "張榮": 6432,
      "張姓丈夫": 6433,
      "彌足": 6434,
      "影片": 6435,
      "往往": 6436,
      "後在": 6437,
      "後就": 6438,
      "後已": 6439,
      "後由": 6440,
      "後火車站": 6441,
      "徒手": 6442,
      "得比較": 6443,
      "循環": 6444,
      "心理": 6445,
      "心環保": 6446,
      "心治療": 6447,
      "必填": 6448,
      "必需": 6449,
      "必須為": 6450,
      "志偉": 6451,
      "思念": 6452,
      "思瑞": 6453,
      "性別": 6454,
      "性的": 6455,
      "性行為": 6456,
      "性塑膠": 6457,
      "性影像": 6458,
      "恐怕": 6459,
      "恐懼": 6460,
      "恩餐會": 6461,
      "情事": 6462,
      "情形": 6463,
      "想起": 6464,
      "感想": 6465,
      "感恩餐會": 6466,
      "憑證": 6467,
      "應採": 6468,
      "應用": 6469,
      "應推置底": 6470,
      "懲處": 6471,
      "成立": 6472,
      "成鳥": 6473,
      "我會": 6474,
      "我在台南": 6475,
      "我玩水": 6476,
      "或不": 6477,
      "或重": 6478,
      "或文章": 6479,
      "或推文": 6480,
      "或其他": 6481,
      "或環保": 6482,
      "或單位": 6483,
      "或系統": 6484,
      "或善用": 6485,
      "或政黨": 6486,
      "截流": 6487,
      "戰南北": 6488,
      "戲水": 6489,
      "戶外": 6490,
      "所以": 6491,
      "所幸": 6492,
      "手冊": 6493,
      "手槍": 6494,
      "手繪": 6495,
      "手里": 6496,
      "才停下": 6497,
      "扭蛋": 6498,
      "扶養": 6499,
      "扼殺": 6500,
      "找到": 6501,
      "技術": 6502,
      "抱怨": 6503,
      "抽樣": 6504,
      "抽貼圖": 6505,
      "拍完": 6506,
      "拒絕": 6507,
      "拿到": 6508,
      "持菜": 6509,
      "指令": 6510,
      "指揮": 6511,
      "指標": 6512,
      "按摩": 6513,
      "排隊": 6514,
      "採收": 6515,
      "接在": 6516,
      "接獲": 6517,
      "提前": 6518,
      "提升": 6519,
      "提及": 6520,
      "提起": 6521,
      "提高": 6522,
      "換新": 6523,
      "換物": 6524,
      "搶先": 6525,
      "撞擊": 6526,
      "操作": 6527,
      "擔心": 6528,
      "據掌握": 6529,
      "擦撞": 6530,
      "攜槍": 6531,
      "攤位": 6532,
      "支架": 6533,
      "支付方式": 6534,
      "收腹": 6535,
      "收藏": 6536,
      "改名": 6537,
      "改成": 6538,
      "改為": 6539,
      "改造": 6540,
      "攻訐": 6541,
      "放在": 6542,
      "放著": 6543,
      "放鴿": 6544,
      "故出售": 6545,
      "故便宜": 6546,
      "效益": 6547,
      "效能": 6548,
      "敘述": 6549,
      "教師殺": 6550,
      "散播": 6551,
      "散步": 6552,
      "敬請": 6553,
      "整個": 6554,
      "整建": 6555,
      "整齊": 6556,
      "數量": 6557,
      "數帳號": 6558,
      "文及": 6559,
      "文夏": 6560,
      "文字": 6561,
      "文社": 6562,
      "文館": 6563,
      "文會被": 6564,
      "文規定": 6565,
      "新市": 6566,
      "新興": 6567,
      "新進": 6568,
      "新模式": 6569,
      "新亮點": 6570,
      "新主人": 6571,
      "新台幣": 6572,
      "方法": 6573,
      "於鄉": 6574,
      "於水桶": 6575,
      "於2024年": 6576,
      "於關廟果菜": 6577,
      "施政": 6578,
      "旅人": 6579,
      "族路": 6580,
      "日常": 6581,
      "日本": 6582,
      "星巴克": 6583,
      "映照": 6584,
      "昨日": 6585,
      "是指": 6586,
      "是有": 6587,
      "是這": 6588,
      "是非": 6589,
      "是台南": 6590,
      "是台灣": 6591,
      "是自行刪文": 6592,
      "時會": 6593,
      "時期": 6594,
      "時可自行": 6595,
      "更多": 6596,
      "更是": 6597,
      "更為": 6598,
      "更能": 6599,
      "曾任4屆": 6600,
      "曾培雅": 6601,
      "最少": 6602,
      "會勘": 6603,
      "會改": 6604,
      "會出現": 6605,
      "會定期": 6606,
      "有2": 6607,
      "有助": 6608,
      "有幾": 6609,
      "有效": 6610,
      "有期": 6611,
      "有權": 6612,
      "有不同": 6613,
      "有兩組": 6614,
      "有大量": 6615,
      "有記憶": 6616,
      "有家長": 6617,
      "有哪些": 6618,
      "有在維": 6619,
      "有封鎖": 6620,
      "期限": 6621,
      "木耳": 6622,
      "未推": 6623,
      "未料": 6624,
      "未經": 6625,
      "未能": 6626,
      "未達": 6627,
      "未申請": 6628,
      "本月": 6629,
      "本版": 6630,
      "本週": 6631,
      "本類": 6632,
      "李宗霖": 6633,
      "材質": 6634,
      "束後將": 6635,
      "東山": 6636,
      "東西": 6637,
      "東路": 6638,
      "松林": 6639,
      "板面": 6640,
      "板和風力發電": 6641,
      "林男": 6642,
      "果凍粽": 6643,
      "某某": 6644,
      "查看": 6645,
      "校友": 6646,
      "楊思瑞": 6647,
      "構成": 6648,
      "槍砲": 6649,
      "樂齡": 6650,
      "標記": 6651,
      "機會": 6652,
      "機構": 6653,
      "機為": 6654,
      "機關": 6655,
      "機RCD510": 6656,
      "櫃子": 6657,
      "欲售500": 6658,
      "正在": 6659,
      "正職": 6660,
      "正向回饋": 6661,
      "此系列": 6662,
      "此裝置": 6663,
      "此文會被": 6664,
      "歲郭": 6665,
      "死者": 6666,
      "死鹹": 6667,
      "每天": 6668,
      "每年": 6669,
      "每次": 6670,
      "每間店": 6671,
      "每家醫院": 6672,
      "比林俊": 6673,
      "民支持": 6674,
      "民族路": 6675,
      "氛圍": 6676,
      "水球": 6677,
      "汰舊": 6678,
      "決心": 6679,
      "汽車": 6680,
      "沈震": 6681,
      "沉靜": 6682,
      "沒用到": 6683,
      "河橋": 6684,
      "法律": 6685,
      "浪費": 6686,
      "海拔": 6687,
      "海賊": 6688,
      "深感": 6689,
      "清潔": 6690,
      "減輕": 6691,
      "港濱": 6692,
      "湖內": 6693,
      "湖水": 6694,
      "溫度": 6695,
      "滾動調整": 6696,
      "滿滿": 6697,
      "演變": 6698,
      "漢松林": 6699,
      "漸漸": 6700,
      "激烈": 6701,
      "炎炎": 6702,
      "炒得": 6703,
      "炸雞腿": 6704,
      "炸小里肌": 6705,
      "為佳": 6706,
      "為止": 6707,
      "為由": 6708,
      "為貴": 6709,
      "為板主": 6710,
      "為日治": 6711,
      "為兩字": 6712,
      "為口號": 6713,
      "烈回響": 6714,
      "無人": 6715,
      "無毒": 6716,
      "無袖": 6717,
      "無論": 6718,
      "無關": 6719,
      "熱議": 6720,
      "熱烈回響": 6721,
      "燕餃": 6722,
      "爭執": 6723,
      "版本": 6724,
      "牛仔褲": 6725,
      "物稀": 6726,
      "物出售": 6727,
      "特輯": 6728,
      "犯案": 6729,
      "犯罪": 6730,
      "獎章": 6731,
      "獎金": 6732,
      "獎台語": 6733,
      "玩球": 6734,
      "現行": 6735,
      "現存唯一複線": 6736,
      "甜甜": 6737,
      "生產": 6738,
      "產季": 6739,
      "產物": 6740,
      "產量": 6741,
      "用地": 6742,
      "用字": 6743,
      "用的": 6744,
      "用的是": 6745,
      "用路人": 6746,
      "田間": 6747,
      "由台南": 6748,
      "由警方調查": 6749,
      "由協辦": 6750,
      "男性": 6751,
      "界與": 6752,
      "留下": 6753,
      "留人": 6754,
      "留得": 6755,
      "留才": 6756,
      "異國風": 6757,
      "當勞": 6758,
      "當場": 6759,
      "當天": 6760,
      "疑整理果": 6761,
      "登山步道": 6762,
      "發出": 6763,
      "發問": 6764,
      "發布": 6765,
      "發想": 6766,
      "發監執行": 6767,
      "發廢文": 6768,
      "發此文會被": 6769,
      "白天": 6770,
      "白飯": 6771,
      "白香": 6772,
      "百貨": 6773,
      "的低": 6774,
      "的光": 6775,
      "的到": 6776,
      "的圖": 6777,
      "的肉": 6778,
      "的可以": 6779,
      "的歷史": 6780,
      "的停車": 6781,
      "的蝦仁": 6782,
      "的景點": 6783,
      "的護理人力": 6784,
      "的舊鐵路橋": 6785,
      "的故事": 6786,
      "的成大": 6787,
      "的浪漫": 6788,
      "的模式": 6789,
      "的移除": 6790,
      "的收成": 6791,
      "的幼兒園": 6792,
      "的目標": 6793,
      "的香氣": 6794,
      "的甜粽": 6795,
      "的醬汁": 6796,
      "的冰箱廢四機回收聯單": 6797,
      "的中間": 6798,
      "的時候": 6799,
      "的狀態": 6800,
      "的眼鏡": 6801,
      "的阿姨": 6802,
      "的陳姓男子": 6803,
      "皆為": 6804,
      "目的": 6805,
      "目魚": 6806,
      "盲段": 6807,
      "相對": 6808,
      "盼以": 6809,
      "看置底": 6810,
      "真空": 6811,
      "真的是": 6812,
      "知識": 6813,
      "短期": 6814,
      "短短": 6815,
      "確保不造成": 6816,
      "碼頭": 6817,
      "祥台南": 6818,
      "票劵": 6819,
      "票卷": 6820,
      "票根": 6821,
      "祭出": 6822,
      "祭百萬": 6823,
      "福園殯儀館旁": 6824,
      "禮券": 6825,
      "禮卷": 6826,
      "禮貌": 6827,
      "私事": 6828,
      "私藏": 6829,
      "租屋": 6830,
      "租賃": 6831,
      "稀有": 6832,
      "程度": 6833,
      "稱有": 6834,
      "空格": 6835,
      "空一格": 6836,
      "突遭": 6837,
      "站外": 6838,
      "站規": 6839,
      "竟直接": 6840,
      "第四": 6841,
      "第4屆": 6842,
      "第3頻": 6843,
      "等文章": 6844,
      "等行為": 6845,
      "等情況": 6846,
      "等地的": 6847,
      "算少": 6848,
      "簡單": 6849,
      "簡約": 6850,
      "粹造": 6851,
      "糾紛": 6852,
      "約20": 6853,
      "約30": 6854,
      "紅底": 6855,
      "紅蘿": 6856,
      "納入參考": 6857,
      "純粹造": 6858,
      "紗裙": 6859,
      "紙券型": 6860,
      "紛紛": 6861,
      "素材": 6862,
      "索取唷": 6863,
      "累積": 6864,
      "細細": 6865,
      "組件": 6866,
      "組務": 6867,
      "結束後將": 6868,
      "給需要": 6869,
      "經營": 6870,
      "經驗": 6871,
      "綠地": 6872,
      "網址": 6873,
      "綽號": 6874,
      "緊身": 6875,
      "縣市政府": 6876,
      "縮短": 6877,
      "縱貫": 6878,
      "總統": 6879,
      "繪本": 6880,
      "續約": 6881,
      "缺乏": 6882,
      "缺少滋潤": 6883,
      "置作業": 6884,
      "罰則": 6885,
      "羅漢松林": 6886,
      "美學": 6887,
      "美館": 6888,
      "羨慕": 6889,
      "者將": 6890,
      "者請": 6891,
      "者直接水桶": 6892,
      "而扼殺": 6893,
      "聯繫": 6894,
      "聲音": 6895,
      "聽到": 6896,
      "聽聞": 6897,
      "肥瘦": 6898,
      "肩骨": 6899,
      "能吃": 6900,
      "能夠": 6901,
      "腰鬆": 6902,
      "腸的": 6903,
      "臨時": 6904,
      "自刪": 6905,
      "自銷": 6906,
      "自4月": 6907,
      "自小客車": 6908,
      "至於": 6909,
      "臺南": 6910,
      "臺文館": 6911,
      "與市": 6912,
      "與書": 6913,
      "與水桶": 6914,
      "與收集": 6915,
      "與地方": 6916,
      "與退文": 6917,
      "與他人": 6918,
      "與社會": 6919,
      "與場域": 6920,
      "與現代": 6921,
      "與尿布檯": 6922,
      "興趣": 6923,
      "舉發": 6924,
      "舉行": 6925,
      "舊推文": 6926,
      "舊市區": 6927,
      "舒肥": 6928,
      "良好": 6929,
      "花季推薦": 6930,
      "若喬": 6931,
      "若為": 6932,
      "萬代": 6933,
      "萬年": 6934,
      "著一": 6935,
      "著手": 6936,
      "蓋鏡": 6937,
      "蓮花季推薦": 6938,
      "蔔炒蛋": 6939,
      "蕭壠文化園區": 6940,
      "蕾絲": 6941,
      "藍色": 6942,
      "虎頭": 6943,
      "號碼": 6944,
      "虱目魚": 6945,
      "行將": 6946,
      "行程": 6947,
      "行經": 6948,
      "行車": 6949,
      "表單": 6950,
      "表現": 6951,
      "被板主": 6952,
      "裁量": 6953,
      "補充": 6954,
      "補救": 6955,
      "製造": 6956,
      "製自銷": 6957,
      "複合": 6958,
      "複數帳號": 6959,
      "西埔": 6960,
      "西灣": 6961,
      "西部": 6962,
      "要找": 6963,
      "要提醒": 6964,
      "見解": 6965,
      "見證": 6966,
      "規格": 6967,
      "視天": 6968,
      "視覺": 6969,
      "視角": 6970,
      "親人": 6971,
      "親友懷疑": 6972,
      "角度": 6973,
      "解除": 6974,
      "言詞": 6975,
      "訂出具體辦法": 6976,
      "計日": 6977,
      "記錄": 6978,
      "設施": 6979,
      "診所": 6980,
      "評分": 6981,
      "試營運": 6982,
      "詩組": 6983,
      "詮釋": 6984,
      "該2名": 6985,
      "認同": 6986,
      "誠可議": 6987,
      "說話": 6988,
      "課程": 6989,
      "請人": 6990,
      "請先": 6991,
      "請寄": 6992,
      "請求": 6993,
      "請使用者": 6994,
      "請直接": 6995,
      "請板友": 6996,
      "請來信": 6997,
      "請接在": 6998,
      "請看置底": 6999,
      "講師": 7000,
      "講座": 7001,
      "警戒": 7002,
      "警一分局": 7003,
      "護士公會": 7004,
      "變化": 7005,
      "變身": 7006,
      "讓我": 7007,
      "豬排": 7008,
      "負擔": 7009,
      "負責": 7010,
      "負贊助": 7011,
      "財物": 7012,
      "貨了": 7013,
      "買了": 7014,
      "買錯": 7015,
      "貼出": 7016,
      "貼近": 7017,
      "資格": 7018,
      "賣價": 7019,
      "賦予": 7020,
      "質疑": 7021,
      "贈滿意寶寶NB尿布": 7022,
      "走出": 7023,
      "走跑": 7024,
      "走進": 7025,
      "走訪台南": 7026,
      "走入歷史": 7027,
      "走在路旁": 7028,
      "起計日": 7029,
      "超美": 7030,
      "超推薦": 7031,
      "足見": 7032,
      "跟我": 7033,
      "路麥": 7034,
      "踩點": 7035,
      "身心治療": 7036,
      "躺在": 7037,
      "車內": 7038,
      "軌道": 7039,
      "軟體": 7040,
      "輕鬆": 7041,
      "輪圈含胎": 7042,
      "轉寄": 7043,
      "轉換": 7044,
      "轉賣價": 7045,
      "辜負贊助": 7046,
      "農膜": 7047,
      "迅速": 7048,
      "近年": 7049,
      "近日": 7050,
      "追撞": 7051,
      "這場": 7052,
      "這家": 7053,
      "這樣": 7054,
      "這次": 7055,
      "這項": 7056,
      "這4座": 7057,
      "這是一": 7058,
      "逛逛": 7059,
      "速度會": 7060,
      "週三": 7061,
      "週二": 7062,
      "週五": 7063,
      "進學": 7064,
      "逾十萬顆": 7065,
      "遊玩": 7066,
      "運用": 7067,
      "運輸": 7068,
      "過來": 7069,
      "過度": 7070,
      "過一次": 7071,
      "道局": 7072,
      "道路": 7073,
      "達成": 7074,
      "達人鄭琨諺": 7075,
      "違法": 7076,
      "適用": 7077,
      "遭批": 7078,
      "遵循": 7079,
      "選了": 7080,
      "選舉": 7081,
      "選金煌": 7082,
      "邁向": 7083,
      "還帶": 7084,
      "還我玩水": 7085,
      "那種": 7086,
      "那麼": 7087,
      "邱志偉": 7088,
      "郵寄": 7089,
      "郵票": 7090,
      "都市": 7091,
      "都是": 7092,
      "鄭順": 7093,
      "配上": 7094,
      "酒力": 7095,
      "酒測": 7096,
      "酵素": 7097,
      "醫事人員": 7098,
      "釀成": 7099,
      "里長": 7100,
      "野鳥": 7101,
      "量刑": 7102,
      "金黃": 7103,
      "鐵道局": 7104,
      "長照": 7105,
      "開車": 7106,
      "關床": 7107,
      "關心環保": 7108,
      "附台南點": 7109,
      "降雨": 7110,
      "院方": 7111,
      "隔天": 7112,
      "障礙": 7113,
      "隨機": 7114,
      "集合": 7115,
      "雞蛋": 7116,
      "難得": 7117,
      "雨仍下得不夠": 7118,
      "雪紡": 7119,
      "零組件": 7120,
      "電冰箱": 7121,
      "霧化": 7122,
      "露營": 7123,
      "非台南": 7124,
      "非店家": 7125,
      "非實體": 7126,
      "順利": 7127,
      "預購": 7128,
      "領取": 7129,
      "領無袖": 7130,
      "額外": 7131,
      "額度": 7132,
      "額滿": 7133,
      "顏色": 7134,
      "類看板": 7135,
      "顯著": 7136,
      "顯見": 7137,
      "風格": 7138,
      "食安自負": 7139,
      "飯的": 7140,
      "飲酒": 7141,
      "飼主": 7142,
      "餐券": 7143,
      "餐卷": 7144,
      "餐廳": 7145,
      "餐檯": 7146,
      "餐點": 7147,
      "館帆船進場": 7148,
      "駕車": 7149,
      "騎樓": 7150,
      "驚呆": 7151,
      "體型": 7152,
      "高溫": 7153,
      "高達": 7154,
      "高鐵": 7155,
      "高齡": 7156,
      "鳥巢": 7157,
      "鳥種": 7158,
      "鹹甜": 7159,
      "黃牛": 7160,
      "黃金": 7161,
      "黑格紋": 7162,
      "鼓勵": 7163,
      "龍崎": 7164,
      "龍山國小": 7165,
      "！！": 7166,
      "！」，": 7167,
      "％，": 7168,
      "（[": 7169,
      "，[": 7170,
      "台南知": 7171,
      "台南資訊": 7172,
      "台南永康": 7173,
      "台南發生": 7174,
      "台南特色": 7175,
      "台南仁德": 7176,
      "台南旅遊": 7177,
      "台南米唐": 7178,
      "台南善化": 7179,
      "台南19日": 7180,
      "台南新營": 7181,
      "台南博物館節": 7182,
      "台南運動健康": 7183,
      "台南玄饌": 7184,
      "台南美食": 7185,
      "台南銀髮族健身教練": 7186,
      "台南全區": 7187,
      "台南境內": 7188,
      "台南有哪些": 7189,
      "台南祭百萬": 7190,
      "2018": 7191,
      "2014": 7192,
      "2016": 7193,
      "2014年": 7194,
      "2027": 7195,
      "2021年": 7196,
      "時間較": 7197,
      "時間限制": 7198,
      "000": 7199,
      "anan": 7200,
      "in4": 7201,
      "inn": 7202,
      "indy": 7203,
      "台南市議員": 7204,
      "台南市永康區": 7205,
      "台南市觀旅局": 7206,
      "台南市議會": 7207,
      "台南市成為": 7208,
      "台南市北門": 7209,
      "台南市官田區": 7210,
      "台南市民支持": 7211,
      "台南市警一分局": 7212,
      "台南市野鳥": 7213,
      "地點可議": 7214,
      "標題改": 7215,
      "標題發表": 7216,
      "2025台南博物館節": 7217,
      "文章清除": 7218,
      "文章一併": 7219,
      "使用約": 7220,
      "┴┬┴┬┴┤": 7221,
      "徵求嬰兒床": 7222,
      "101": 7223,
      "10日": 7224,
      "10號": 7225,
      "19530": 7226,
      "水桶14天": 7227,
      "水桶與退文": 7228,
      "請問白河": 7229,
      "請問舊市區": 7230,
      "請勿出現": 7231,
      "發文內容": 7232,
      "發文至板上": 7233,
      "新聞來源": 7234,
      "違規兩次": 7235,
      "違規事項": 7236,
      "違規紀錄": 7237,
      "違規懲處": 7238,
      "ong": 7239,
      "詐騙名單": 7240,
      "isno": 7241,
      "══╮": 7242,
      "══╯": 7243,
      "板主公告": 7244,
      "板主專用": 7245,
      "板主或系統": 7246,
      "二手玩具": 7247,
      "說明書": 7248,
      "185": 7249,
      "1800": 7250,
      "1877": 7251,
      "180公分": 7252,
      "180天": 7253,
      "18iBF": 7254,
      "活動為": 7255,
      "活動專用": 7256,
      "活動布置": 7257,
      "活動請用": 7258,
      "活動結束後將": 7259,
      "30字": 7260,
      "30公分深": 7261,
      "159": 7262,
      "15日": 7263,
      "1500": 7264,
      "151號": 7265,
      "150公分": 7266,
      "3C與周邊": 7267,
      "12月": 7268,
      "12935": 7269,
      "相關資訊": 7270,
      "相關證據": 7271,
      "┴┬┴┬┴┬┴┬┴┬┴": 7272,
      "885": 7273,
      "以下名單": 7274,
      "po文": 7275,
      "post": 7276,
      "16分因地下電纜故障": 7277,
      "enn": 7278,
      "ento": 7279,
      "en12935": 7280,
      "50人": 7281,
      "可以到": 7282,
      "可以直接": 7283,
      "可以來信": 7284,
      "可以跟我": 7285,
      "提供許願": 7286,
      "提供Wi": 7287,
      "護理需求": 7288,
      "139": 7289,
      "討論者": 7290,
      "完成威權象徵": 7291,
      "限定景觀": 7292,
      "南區中西區": 7293,
      "東區二手寵物": 7294,
      "東區東停28": 7295,
      "東區英文": 7296,
      "網路上": 7297,
      "tiv": 7298,
      "醫院的": 7299,
      "醫院打造": 7300,
      "醫院搶救": 7301,
      "全新輕量": 7302,
      "全新New": 7303,
      "全新未使用": 7304,
      "全新STAUB": 7305,
      "全新轉賣價": 7306,
      "其他板主": 7307,
      "其他地方": 7308,
      "其他敘述": 7309,
      "可能有": 7310,
      "資訊的": 7311,
      "資訊都": 7312,
      "255": 7313,
      "避免吸客": 7314,
      "沒有問題": 7315,
      "────────────────────": 7316,
      "板友們": 7317,
      "板友好": 7318,
      "濫用噓文": 7319,
      "請注意不要": 7320,
      "贈送物品": 7321,
      "贈送竹節蟲": 7322,
      "贈送台南永康": 7323,
      "3C類與周邊": 7324,
      "tme": 7325,
      "目前在": 7326,
      "0908": 7327,
      "26577": 7328,
      "26分接": 7329,
      "297": 7330,
      "29年": 7331,
      "歷史公園": 7332,
      "生活的一": 7333,
      "禁止亂板": 7334,
      "詳細圖文介紹": 7335,
      "食記文規定": 7336,
      "站內信提供": 7337,
      "站內信聯絡": 7338,
      "27歲": 7339,
      "275億元": 7340,
      "5月份": 7341,
      "5月19日": 7342,
      "調查中": 7343,
      "調查之": 7344,
      "調查東區英文": 7345,
      "ange": 7346,
      "今年由台南": 7347,
      "南市府": 7348,
      "南市觀旅局": 7349,
      "發生在": 7350,
      "發生於": 7351,
      "發生擦撞": 7352,
      "處理後": 7353,
      "hehe": 7354,
      "heko": 7355,
      "odi": 7356,
      "合購不老松指壓券": 7357,
      "合購媽媽餵哺乳內衣": 7358,
      "安平定情": 7359,
      "政治規範": 7360,
      "政治語言": 7361,
      "鐵路雙軌": 7362,
      "鳳梨廢棄物": 7363,
      "鳳梨種植": 7364,
      "├┬┴┬┴┬┴┬┴┬┴┬┴┬┴┬┴┬┴┬┴┬┴┬┴┬┴┬┴┬┴┬┴┬": 7365,
      "交換版": 7366,
      "交換買賣": 7367,
      "打造護理": 7368,
      "現場面交": 7369,
      "現場有封鎖": 7370,
      "發票額度": 7371,
      "交易文違規": 7372,
      "════╡": 7373,
      "護理人才": 7374,
      "ltime": 7375,
      "sher": 7376,
      "shen12935": 7377,
      "中央已": 7378,
      "修改時間": 7379,
      "修改標題": 7380,
      "區域消暑": 7381,
      "國小龍山": 7382,
      "大家來說": 7383,
      "比照食記文規定": 7384,
      "違反1": 7385,
      "38歲": 7386,
      "38號": 7387,
      "38家業者": 7388,
      "ster": 7389,
      "stagr": 7390,
      "trave": 7391,
      "便當的": 7392,
      "哪裡買": 7393,
      "哪裡領股東紀念品": 7394,
      "商品的": 7395,
      "執行長": 7396,
      "執行檢察官": 7397,
      "未來活動布置": 7398,
      "長期關心環保": 7399,
      "永康區西灣": 7400,
      "100萬元": 7401,
      "love": 7402,
      "lover": 7403,
      "lohas": 7404,
      "不同意見": 7405,
      "交通壅塞": 7406,
      "432": 7407,
      "ale": 7408,
      "cheng": 7409,
      "change": 7410,
      "不少人": 7411,
      "不少正向回饋": 7412,
      "今天宣布": 7413,
      "周邊商品": 7414,
      "工作類": 7415,
      "或是內容較": 7416,
      "持續深": 7417,
      "爭取經費": 7418,
      "發現兩": 7419,
      "發現1具": 7420,
      "累犯比照交易文": 7421,
      "補助的冰箱廢四機回收聯單": 7422,
      "酒駕的陳姓男子": 7423,
      "台南市中西區海安": 7424,
      "台南市中西區南門": 7425,
      "240公尺": 7426,
      "也是生活的一": 7427,
      "以免發生": 7428,
      "市府未來活動布置": 7429,
      "成功路": 7430,
      "成功保存": 7431,
      "文學樂園": 7432,
      "發表文章": 7433,
      "粉紅泡": 7434,
      "路一帶": 7435,
      "遊記文": 7436,
      "閱讀活動": 7437,
      "45分許": 7438,
      "下午4點": 7439,
      "不會開": 7440,
      "住宿文": 7441,
      "塑膠垃圾": 7442,
      "所有帳號": 7443,
      "推出入夏旅行指南": 7444,
      "結合運動": 7445,
      "結合音樂": 7446,
      "觀旅局共同": 7447,
      "部分將開放": 7448,
      "集點任務": 7449,
      "2025051800": 7450,
      "═══╮": 7451,
      "護理師護士公會": 7452,
      "卡片類與收集類": 7453,
      "陳亭妃比林俊": 7454,
      "二層行溪舊": 7455,
      "8748": 7456,
      "hoin4": 7457,
      "my3": 7458,
      "一次性塑膠": 7459,
      "來信請": 7460,
      "個人喜好": 7461,
      "分身視為同一": 7462,
      "工程分局": 7463,
      "得不錯": 7464,
      "感謝大家": 7465,
      "提報前": 7466,
      "提報者": 7467,
      "提報文化部": 7468,
      "生態保育": 7469,
      "生態導覽": 7470,
      "藝術的": 7471,
      "許多市民": 7472,
      "許多親子": 7473,
      "近期南部": 7474,
      "進入玩球": 7475,
      "還有人": 7476,
      "realtime": 7477,
      "29630": 7478,
      "29636": 7479,
      "不到30字": 7480,
      "中華路一帶": 7481,
      "之後請直接": 7482,
      "之後累犯比照交易文": 7483,
      "兒童玩具": 7484,
      "出現9": 7485,
      "原則上": 7486,
      "原文或善用": 7487,
      "影響關廟綠竹筍": 7488,
      "情況下": 7489,
      "投入275億元": 7490,
      "故事的": 7491,
      "業者的美": 7492,
      "法院認定": 7493,
      "法院聲明": 7494,
      "計畫的": 7495,
      "警告與水桶": 7496,
      "超過百": 7497,
      "陳男不服": 7498,
      "雙方差距": 7499,
      "台南板版規": 7500,
      "台南市東區市議員": 7501,
      "路一段及永康區": 7502,
      "林澤峰與": 7503,
      "2名行人": 7504,
      "CC原廠": 7505,
      "mmmm": 7506,
      "mm875": 7507,
      "哪邊有在維": 7508,
      "單位優先": 7509,
      "多元意見": 7510,
      "廢四機聯單": 7511,
      "廣告文": 7512,
      "徐男載": 7513,
      "成大新的": 7514,
      "歡迎站內信": 7515,
      "治療期間": 7516,
      "浪漫想像": 7517,
      "衛生紙": 7518,
      "規畫應採": 7519,
      "買賣發票": 7520,
      "路與凱旋路口": 7521,
      "轉錄他板": 7522,
      "8月起": 7523,
      "ade": 7524,
      "tainanlohas": 7525,
      "不能進入玩球": 7526,
      "不要寫出要": 7527,
      "保留一半": 7528,
      "兩組擬參選人": 7529,
      "兩組護眼檯燈": 7530,
      "加碼政策": 7531,
      "南科幼兒園": 7532,
      "危險罪": 7533,
      "原因仍待": 7534,
      "另外違反1": 7535,
      "同時辜負贊助": 7536,
      "布置成": 7537,
      "布置逾十萬顆": 7538,
      "手動置底另外違反1": 7539,
      "有點不": 7540,
      "有點像": 7541,
      "查詢使用者": 7542,
      "檢察官裁定": 7543,
      "獎勵醫院": 7544,
      "現在是": 7545,
      "發展循環": 7546,
      "的地方啦": 7547,
      "行人1死1傷": 7548,
      "選擇性": 7549,
      "...」": 7550,
      "謝龍介的": 7551,
      "12000": 7552,
      "500元罰": 7553,
      "74nq": 7554,
      "789": 7555,
      "_1_1": 7556,
      "一名39": 7557,
      "他人同意": 7558,
      "便宜賣": 7559,
      "入場票券": 7560,
      "南部工程分局": 7561,
      "呼籲市府未來活動布置": 7562,
      "善化二手物品": 7563,
      "學校教具": 7564,
      "市議員蔡筱薇": 7565,
      "市議員沈震": 7566,
      "成長的": 7567,
      "收成後": 7568,
      "民間申請": 7569,
      "玉井區中華路": 7570,
      "用品及雜": 7571,
      "的話請站內信": 7572,
      "社區裝飾": 7573,
      "自由發言": 7574,
      "被害女子": 7575,
      "資源浪費": 7576,
      "雙人套房": 7577,
      "2025年5月20日": 7578,
      "2025年5月19日": 7579,
      "hihi": 7580,
      "ppe": 7581,
      "公共危險罪": 7582,
      "初犯水桶30天": 7583,
      "初犯若是": 7584,
      "另一端": 7585,
      "吃起來有點像": 7586,
      "咖啡與": 7587,
      "基層護理師": 7588,
      "大量塑膠球": 7589,
      "家教需求": 7590,
      "審理後": 7591,
      "審理時": 7592,
      "心得文": 7593,
      "新營福園殯儀館旁": 7594,
      "是一場": 7595,
      "每人平均": 7596,
      "清水寺": 7597,
      "營利性質": 7598,
      "的小菜": 7599,
      "的朋友們": 7600,
      "立委林俊憲": 7601,
      "經費約": 7602,
      "若是店家": 7603,
      "裝置呈現": 7604,
      "裝飾品": 7605,
      "製成衣物": 7606,
      "親水需求": 7607,
      "親水廣場": 7608,
      "親水區域消暑": 7609,
      "豐富完整者": 7610,
      "路上有不少": 7611,
      "路線規劃": 7612,
      "遊憩區": 7613,
      "陸續興建": 7614,
      "┴┬┴┬┴┬┤": 7615,
      "........": 7616,
      "推薦的會議便當": 7617,
      "請務必詳閱台南板版規": 7618,
      "冰箱廢四機回收單": 7619,
      "═╤═╤═╤═╤": 7620,
      "═╪═╪═╪═╪": 7621,
      "7jyl": 7622,
      "114學年度": 7623,
      "bo19530": 7624,
      "yansher": 7625,
      "不知道是": 7626,
      "予以尊重": 7627,
      "互動方式": 7628,
      "佳里進學": 7629,
      "價位販賣": 7630,
      "原廠車": 7631,
      "圖片連結": 7632,
      "團隊執行長": 7633,
      "在地觀光產業": 7634,
      "在板上發此文會被": 7635,
      "基礎建設": 7636,
      "對比國民黨謝龍介": 7637,
      "對比式民調": 7638,
      "懶人包等文章": 7639,
      "才能真正": 7640,
      "推車Nuna": 7641,
      "救護車": 7642,
      "救護人員": 7643,
      "旁邊還": 7644,
      "服務團隊執行長": 7645,
      "本土示範": 7646,
      "格紋風衣洋裝": 7647,
      "清除速度會": 7648,
      "火警赫見": 7649,
      "特別規定": 7650,
      "獲報案": 7651,
      "留住護理師": 7652,
      "的外甥": 7653,
      "看起來超像一堆": 7654,
      "經濟新模式": 7655,
      "維持原判": 7656,
      "網友熱議": 7657,
      "製作到": 7658,
      "要求南市府": 7659,
      "試用文": 7660,
      "讓人不禁": 7661,
      "輕量收腹": 7662,
      "送往安南": 7663,
      "靜置期": 7664,
      "台南火車站後站": 7665,
      "200號": 7666,
      "3C產品與周邊": 7667,
      "相關的連結": 7668,
      "記者王姝琇攝": 7669,
      "中央社記者張榮": 7670,
      "中央社記者楊思瑞": 7671,
      "教育局強調": 7672,
      "自己的文章": 7673,
      "酒駕累犯3男": 7674,
      "13家責任醫院及": 7675,
      "┬───┬───┬───┬───": 7676,
      "┴───┴───┴───┴───": 7677,
      "多重分身之累犯": 7678,
      "0109": 7679,
      "5w83": 7680,
      "5wwm": 7681,
      "75s": 7682,
      "7eeb": 7683,
      ":::": 7684,
      "SK2": 7685,
      "d82234": 7686,
      "pNpAC": 7687,
      "waiting": 7688,
      "xuan": 7689,
      "七股國小龍山": 7690,
      "中正路": 7691,
      "二犯以上": 7692,
      "人與槍砲": 7693,
      "免稅禮盒": 7694,
      "免稅價再": 7695,
      "判處有期": 7696,
      "吸引觀光": 7697,
      "報到人數": 7698,
      "多少發票額度": 7699,
      "大幅縮短": 7700,
      "威脅板主": 7701,
      "對於多元意見": 7702,
      "延托可到": 7703,
      "後翻覆": 7704,
      "徒刑14年": 7705,
      "從哪邊跌倒": 7706,
      "成果展現": 7707,
      "捕蛇達人鄭琨諺": 7708,
      "排除酒駕": 7709,
      "搶修中": 7710,
      "有需要討論者": 7711,
      "消費者": 7712,
      "消費時間": 7713,
      "添加劑": 7714,
      "營業時間": 7715,
      "獲得了": 7716,
      "統一為兩字": 7717,
      "維護規畫": 7718,
      "緊急徵求文": 7719,
      "者水桶7天": 7720,
      "聚焦於": 7721,
      "詳情請見": 7722,
      "詳情請看置底": 7723,
      "請標示": 7724,
      "請自行信箱": 7725,
      "贊助獎項": 7726,
      "農業廢棄物": 7727,
      "飼料添加劑": 7728,
      "台南人或": 7729,
      "台南玉井休旅車": 7730,
      "2026年底": 7731,
      "18日電": 7732,
      "125戶": 7733,
      "票券卡片類與收集": 7734,
      "────────────────────────────────────": 7735,
      "════════════╡": 7736,
      "arket": 7737,
      "——————": 7738,
      "3650天水桶": 7739,
      "中華東路與凱旋路口": 7740,
      "台南市美術館1館2樓展覽室": 7741,
      "今下午3點多": 7742,
      "今下午3點16分因地下電纜故障": 7743,
      "5zwrr": 7744,
      "5zwrq": 7745,
      "殯儀館旁火警赫見": 7746,
      "活膚霜禮盒": 7747,
      "第5次定期會市政總質詢": 7748,
      "1名5度": 7749,
      "2時45分許": 7750,
      "3K4x": 7751,
      "5萬4200元": 7752,
      "546戶": 7753,
      "BBS": 7754,
      "Google": 7755,
      "Lativ": 7756,
      "Oct": 7757,
      "UWqh": 7758,
      "YOU": 7759,
      "ZuW7": 7760,
      "gmisno": 7761,
      "一篇文章起計日": 7762,
      "三樣配菜": 7763,
      "三犯永桶": 7764,
      "不准易科罰金": 7765,
      "不另通知": 7766,
      "也請勿帶入": 7767,
      "交叉口": 7768,
      "依法開": 7769,
      "便利商店": 7770,
      "傳送門": 7771,
      "光澤洋裝": 7772,
      "全台現存唯一複線": 7773,
      "兩個月一篇": 7774,
      "公路橋": 7775,
      "出清收藏": 7776,
      "初衷未達": 7777,
      "募集中": 7778,
      "問券調查": 7779,
      "多項挑戰": 7780,
      "大學路": 7781,
      "大醫院護理人力": 7782,
      "失去呼吸心": 7783,
      "如有其他敘述": 7784,
      "季節限定景觀": 7785,
      "專板轉入": 7786,
      "幫助的": 7787,
      "或徵求發票": 7788,
      "收到不少正向回饋": 7789,
      "收費停車場": 7790,
      "文末抽獎": 7791,
      "斑駁的招牌": 7792,
      "有無包廂": 7793,
      "木質乳牙收納": 7794,
      "本屆議員": 7795,
      "東門路一段": 7796,
      "林內烘碗機": 7797,
      "業配文": 7798,
      "橫跨二層行溪": 7799,
      "檢方對": 7800,
      "正確的範例": 7801,
      "比林俊憲多贏": 7802,
      "活化應用": 7803,
      "濱海遊憩區": 7804,
      "火場另一端": 7805,
      "炸得金黃": 7806,
      "焢肉飯": 7807,
      "爸爸媽媽": 7808,
      "甚者退文": 7809,
      "留任率": 7810,
      "疑似身體不適": 7811,
      "的信心": 7812,
      "的部份": 7813,
      "眼線筆": 7814,
      "確切肇事": 7815,
      "節能補助的冰箱廢四機回收聯單": 7816,
      "築巢育雛": 7817,
      "自產自製自銷": 7818,
      "花椰菜": 7819,
      "融入日常": 7820,
      "行政院": 7821,
      "調味的甜粽": 7822,
      "請使用雙標題": 7823,
      "請修改原文或善用": 7824,
      "請記得附台南點": 7825,
      "趨勢民調": 7826,
      "距離賽": 7827,
      "路邊停車": 7828,
      "連任失": 7829,
      "連接高雄湖內": 7830,
      "防曬乳": 7831,
      "領回再利用": 7832,
      "食品級矽藻土": 7833,
      "高度選擇性": 7834,
      "台南板友自家": 7835,
      "台南最高學府": 7836,
      "台南市文化局已": 7837,
      "文章因文章清除": 7838,
      "徵求冷氣廢四機聯單": 7839,
      "10萬顆粉紅泡泡": 7840,
      "違規之文章一併": 7841,
      "板主可視情況": 7842,
      "相關人事": 7843,
      "en626577": 7844,
      "記者吳俊鋒攝": 7845,
      "記者蘇福男攝": 7846,
      "23年徒刑": 7847,
      "26公分圓形": 7848,
      "民進黨台南市長初選": 7849,
      "芒果青青": 7850,
      "請務必選用標題分類": 7851,
      "同一個主揪": 7852,
      "20日凌晨2時45分許": 7853,
      "黑冠麻鷺育雛季": 7854,
      "保留首篇或是內容較": 7855,
      "2023年4月8日": 7856,
      "降售400元": 7857,
      "雖然天氣逐漸炎熱": 7858,
      "送往麻豆新樓": 7859,
      "電子報推出入夏旅行指南": 7860,
      "瑞峰國小明年停辦": 7861,
      "台電台南區處說明": 7862,
      "有意願的話請站內信": 7863,
      "連撞6車2": 7864,
      "台南週末活動整理懶人包": 7865,
      "1517741877": 7866,
      "台灣歷史博物館展示教育大樓1樓大廳": 7867,
      "soul光澤洋裝": 7868,
      "單日到貨量僅約": 7869,
      "沙崙智慧綠能科學城以太陽能": 7870,
      "無預警停電": 7871,
      "童樂園南科托嬰中心評價": 7872,
      "二手兒童成長書桌2": 7873,
      "台灣基進台南黨部主委": 7874,
      "方式之移除計劃等": 7875,
      "心臟中彈被丟包醫": 7876,
      "大橋火車站奇美側交通壅塞": 7877,
      "於地方有線電視系統": 7878,
      "1T8": 7879,
      "1樓展覽室A": 7880,
      "2VWZuW7": 7881,
      "4epNpAC": 7882,
      "4年投入275億元": 7883,
      "5hr": 7884,
      "7gsd": 7885,
      "APP": 7886,
      "II青春露": 7887,
      "PttX": 7888,
      "YkpUo": 7889,
      "ahel": 7890,
      "balance童鞋": 7891,
      "karbo19530": 7892,
      "lucy": 7893,
      "momo": 7894,
      "money": 7895,
      "qwqmmmm": 7896,
      "roduc": 7897,
      "║═══╬═══║": 7898,
      "三層肉": 7899,
      "不勝酒力": 7900,
      "不應不同意見": 7901,
      "不曉得": 7902,
      "不雅用字": 7903,
      "並妥善安排": 7904,
      "也對1名5度": 7905,
      "二仁溪": 7906,
      "仍以前一篇文章起計日": 7907,
      "以利閱讀": 7908,
      "以多少價位販賣": 7909,
      "低汙染或環保": 7910,
      "依情況警告與水桶": 7911,
      "修小型製冰機": 7912,
      "們看過來": 7913,
      "候與市民反饋": 7914,
      "僅試穿": 7915,
      "儘速完成威權象徵": 7916,
      "充滿浪漫想像": 7917,
      "兇器強制性交": 7918,
      "全是塑膠球": 7919,
      "全長240公尺": 7920,
      "到6月底": 7921,
      "化工程產物": 7922,
      "原已保留一半": 7923,
      "及後翻蓋鏡": 7924,
      "反而引發": 7925,
      "只用過一次": 7926,
      "可幫忙載": 7927,
      "可轉為學校教具": 7928,
      "各類交易類": 7929,
      "嚴懲酒駕累犯3男": 7930,
      "在4月28": 7931,
      "型公共藝術": 7932,
      "基隆河橋": 7933,
      "外酥內嫩": 7934,
      "女孩們看過來": 7935,
      "宴會館帆船進場": 7936,
      "家庭教師殺": 7937,
      "家電類": 7938,
      "專案小組": 7939,
      "就從哪邊站起來": 7940,
      "居民合力": 7941,
      "屆台中文學獎台語": 7942,
      "已於5月": 7943,
      "已組裝": 7944,
      "廣建立友善環境的遊憩方式": 7945,
      "建於1929年": 7946,
      "彌足珍貴": 7947,
      "應推置底未推": 7948,
      "成鳥哺育": 7949,
      "戰南北實用貼圖": 7950,
      "手里包恩": 7951,
      "持菜刀強": 7952,
      "按摩器": 7953,
      "提起上訴": 7954,
      "換新節能補助的冰箱廢四機回收聯單": 7955,
      "放鴿子": 7956,
      "故便宜出售": 7957,
      "文社1": 7958,
      "於鄉里": 7959,
      "於關廟果菜市場": 7960,
      "是非對錯": 7961,
      "時期西部": 7962,
      "時可自行按大T修改": 7963,
      "更為彌足珍貴": 7964,
      "曾任4屆台南市議員": 7965,
      "有不同見解": 7966,
      "有大量資訊": 7967,
      "有記憶點": 7968,
      "未經他人同意": 7969,
      "未申請汰舊": 7970,
      "本類文章因文章清除": 7971,
      "板和風力發電機為": 7972,
      "樂齡學習": 7973,
      "機關車": 7974,
      "欲售5000元": 7975,
      "此系列ID": 7976,
      "歲郭姓男子": 7977,
      "海賊王": 7978,
      "港濱歷史公園": 7979,
      "滾動調整裝置呈現": 7980,
      "炎炎夏日": 7981,
      "為日治時期西部": 7982,
      "無論是自行刪文": 7983,
      "物稀為貴": 7984,
      "由協辦單位優先": 7985,
      "界與觀旅局共同": 7986,
      "白香餅": 7987,
      "的眼鏡蛇": 7988,
      "確保不造成資源浪費": 7989,
      "碼頭德陽艦園區": 7990,
      "祥台南18日電": 7991,
      "第4屆第5次定期會市政總質詢": 7992,
      "第3頻道": 7993,
      "紅蘿蔔炒蛋": 7994,
      "緊身牛仔褲": 7995,
      "縱貫鐵路雙軌": 7996,
      "而扼殺創意": 7997,
      "肩骨折": 7998,
      "腰鬆緊": 7999,
      "與場域互動方式": 8000,
      "蓮花季推薦地點": 8001,
      "虎頭埤": 8002,
      "裁量權": 8003,
      "解除水桶": 8004,
      "該2名當事人": 8005,
      "走跑距離賽": 8006,
      "走訪台南綠能相關特色景點": 8007,
      "路麥當勞": 8008,
      "身心治療與": 8009,
      "還我玩水的地方啦": 8010,
      "鄭順聰": 8011,
      "非店家營利性質": 8012,
      "台南資訊傳送門": 8013,
      "台南仁德兩地": 8014,
      "台南善化童樂園南科托嬰中心評價": 8015,
      "台南19日電": 8016,
      "台南新營殯儀館旁火警赫見": 8017,
      "台南運動健康護照計畫": 8018,
      "台南玄饌宴會館帆船進場": 8019,
      "台南祭百萬獎勵醫院": 8020,
      "台南市北門區": 8021,
      "台南市野鳥學會理事長": 8022,
      "徵求嬰兒床與尿布檯": 8023,
      "請問白河蓮花季推薦地點": 8024,
      "請問舊市區哪邊有在維": 8025,
      "發文至板上者水桶7天": 8026,
      "違規兩次以上": 8027,
      "板主或系統刪文": 8028,
      "18iBFYkpUo": 8029,
      "活動結束後將由協辦單位優先": 8030,
      "150公分寬": 8031,
      "提供許願球": 8032,
      "南區中西區哪裡領股東紀念品": 8033,
      "東區二手寵物用品及雜": 8034,
      "醫院打造友善職場": 8035,
      "全新輕量推車Nuna": 8036,
      "避免吸客初衷未達": 8037,
      "26分接獲報案": 8038,
      "調查東區英文家教需求": 8039,
      "今年由台南在地觀光產業": 8040,
      "安平定情碼頭德陽艦園區": 8041,
      "├┬┴┬┴┬┴┬┴┬┴┬┴┬┴┬┴┬┴┬┴┬┴┬┴┬┴┬┴┬┴┬┴┬┴┬┴┬┤": 8042,
      "現場有封鎖線": 8043,
      "shen129353": 8044,
      "大家來說台語": 8045,
      "38家業者贊助獎項": 8046,
      "stagram": 8047,
      "爭取經費補助": 8048,
      "台南市中西區南門路": 8049,
      "部分將開放民間申請": 8050,
      "一次性塑膠裝飾品": 8051,
      "分身視為同一帳號": 8052,
      "提報文化部爭取經費補助": 8053,
      "近期南部天氣": 8054,
      "之後請直接打": 8055,
      "之後累犯比照交易文30天": 8056,
      "影響關廟綠竹筍的收成": 8057,
      "業者的美意": 8058,
      "法院聲明異議": 8059,
      "陳男不服提起上訴": 8060,
      "路一段及永康區中華路一帶": 8061,
      "mm87512000": 8062,
      "規畫應採低汙染或環保": 8063,
      "轉錄他板文章": 8064,
      "不要寫出要以多少價位販賣": 8065,
      "同時辜負贊助業者的美意": 8066,
      "發展循環經濟新模式": 8067,
      "一名39歲郭姓男子": 8068,
      "善化二手物品贈送": 8069,
      "市議員沈震東": 8070,
      "社區裝飾再利用": 8071,
      "雙人套房每人": 8072,
      "每人平均價位": 8073,
      "請務必詳閱台南板版規再發文": 8074,
      "本土示範城市": 8075,
      "清除速度會較": 8076,
      "讓人不禁想起": 8077,
      "輕量收腹緊身牛仔褲": 8078,
      "中央社記者張榮祥台南18日電": 8079,
      "中央社記者楊思瑞台南19日電": 8080,
      "人與槍砲罪": 8081,
      "免稅價再8折": 8082,
      "判處有期徒刑14年": 8083,
      "詳情請看置底公告": 8084,
      "請自行信箱解決": 8085,
      "台南玉井休旅車暴衝": 8086,
      "票券卡片類與收集集點類": 8087,
      "3K4xOrq": 8088,
      "UWqh1T8": 8089,
      "gmisnotme": 8090,
      "出清收藏海賊王": 8091,
      "失去呼吸心跳": 8092,
      "如有其他敘述的部份": 8093,
      "木質乳牙收納盒": 8094,
      "林內烘碗機便宜賣": 8095,
      "炸得金黃酥": 8096,
      "自產自製自銷芒果青青": 8097,
      "請修改原文或善用置底推文": 8098,
      "請記得附台南點唷": 8099,
      "食品級矽藻土哪裡買": 8100,
      "26公分圓形琺瑯鑄鐵鍋": 8101,
      "保留首篇或是內容較豐富完整者": 8102,
      "沙崙智慧綠能科學城以太陽能板和風力發電機為": 8103,
      "台灣基進台南黨部主委吳依潔": 8104,
      "不應不同意見而扼殺創意": 8105,
      "並妥善安排後續": 8106,
      "也對1名5度酒駕的陳姓男子": 8107,
      "儘速完成威權象徵的移除": 8108,
      "及後翻蓋鏡頭": 8109,
      "嚴懲酒駕累犯3男不准易科罰金": 8110,
      "家庭教師殺手里包恩": 8111,
      "屆台中文學獎台語詩組": 8112,
      "換新節能補助的冰箱廢四機回收聯單一張": 8113,
      "未申請汰舊換新節能補助的冰箱廢四機回收聯單一張": 8114,
      "本類文章因文章清除之需求": 8115,
      "滾動調整裝置呈現與場域互動方式": 8116,
      "為日治時期西部縱貫鐵路雙軌": 8117,
      "界與觀旅局共同發起": 8118,
      "台南新營殯儀館旁火警赫見焦屍": 8119,
      "台南玄饌宴會館帆船進場請益": 8120,
      "請問舊市區哪邊有在維修小型製冰機": 8121,
      "18iBFYkpUoUWqh1T8": 8122,
      "活動結束後將由協辦單位優先領回再利用": 8123,
      "東區二手寵物用品及雜物出售": 8124,
      "避免吸客初衷未達反而引發": 8125,
      "今年由台南在地觀光產業界與觀旅局共同發起": 8126,
      "規畫應採低汙染或環保材質": 8127,
      "不要寫出要以多少價位販賣或徵求發票": 8128,
      "沙崙智慧綠能科學城以太陽能板和風力發電機為素材": 8129,
      "為日治時期西部縱貫鐵路雙軌化工程產物": 8130
    },
    "merges": [
      "= =",
      "== ==",
      "==== ====",
      "======== ========",
      "台 南",
      "p s",
      "- -",
      "2 0",
      "t t",
      "/ /",
      ": //",
      "h tt",
      "htt ps",
      "交 易",
      "─ ─",
      "================ ================",
      "20 2",
      "c o",
      "時 間",
      "co m",
      "0 0",
      "i m",
      "a n",
      "i n",
      "台南 市",
      "地 點",
      "標 題",
      "202 5",
      "im g",
      "┴ ┬",
      "u r",
      "文 章",
      "j p",
      "img ur",
      "使 用",
      "內 容",
      "-- --",
      "┴┬ ┴┬",
      "a in",
      "看 板",
      "ain an",
      "徵 求",
      "T ainan",
      "1 0",
      "1 9",
      "a y",
      "水 桶",
      "使用 者",
      "面 交",
      "請 問",
      "請 勿",
      "篇 文章",
      "關 於",
      "作 者",
      "這 篇文章",
      "< /",
      "e g",
      "內容 是",
      "請問 關於",
      "「 [",
      "介 紹",
      "發 文",
      "圖 文",
      "新 聞",
      "圖文 介紹",
      "jp eg",
      "M ay",
      "重 點",
      "-- </",
      "─ ┼",
      "==== ==",
      "======== ======",
      "================================ ================================",
      "================================================================ ==============",
      "違 規",
      "o n",
      "詐 騙",
      "板 規",
      "i s",
      "═ ═",
      "板 主",
      "── ──",
      "w w",
      "二 手",
      "說 明",
      "jp g",
      "r e",
      "1 8",
      "============================================================================== =",
      "1 7",
      "活 動",
      "置 底",
      "ps e",
      "3 0",
      "1 5",
      "面交 地點",
      "3 C",
      "n e",
      "表 示",
      "1 4",
      "物 品",
      "一 篇",
      "台南市 內",
      "1 2",
      "以 上",
      "相 關",
      "0 5",
      "會 被",
      "---- ----",
      "刪 除",
      "問 題",
      "┴┬┴┬ ┴┬┴┬",
      "8 8",
      "M on",
      "以 下",
      "i t",
      "p o",
      "收 集",
      "1 6",
      "票 券",
      "類 別",
      "金 錢",
      "ne w",
      "3 7",
      "e n",
      "new s",
      "l y",
      "及 金錢",
      "涉 及金錢",
      "5 0",
      "] [",
      "t w",
      "可 以",
      "提 供",
      "詳 閱",
      "護 理",
      "─┼ ──",
      "1 3",
      "b it",
      "分 類",
      "推 置底",
      "提 醒",
      "討 論",
      "o r",
      "o u",
      "中 西",
      "金 額",
      "收集 類",
      "加 強",
      "發文 前",
      ". .",
      "u e",
      "完 成",
      "記 者",
      "遵 守",
      "限 定",
      "T ue",
      "卡 片",
      "推 文",
      "私 人",
      ") ，",
      "並 遵守",
      "分 享",
      "南 區",
      "明 顯",
      "東 區",
      "為 加強",
      "網 路",
      "請 詳閱",
      "請勿 刪除",
      "以下 為加強",
      "提醒 請勿刪除",
      "發文前 請詳閱",
      "並遵守 板規",
      "以下為加強 提醒請勿刪除",
      "發文前請詳閱 並遵守板規",
      "1 1",
      "t i",
      "出 售",
      "皆 可",
      "L I",
      "任 何",
      "醫 院",
      "限 一篇",
      "c c",
      "i u",
      "事 務",
      "全 新",
      "地 標",
      "物 館",
      "ww w",
      "推置底 文",
      "中西 區",
      "2 3",
      "b e",
      "其 他",
      "區 名",
      "區 皆可",
      "博 物館",
      "可 能",
      "填 區名",
      "或 明顯",
      "民 眾",
      "請 填區名",
      "資 訊",
      "00 元",
      "LI N",
      "或明顯 地標",
      "請填區名 或明顯地標",
      "個 區皆可",
      "公 告",
      "只 填",
      "性 質",
      "會 員",
      "注 意",
      "無 法",
      "直 接",
      "都 有",
      "開 放",
      "台南 表示",
      "交易 物品",
      "台南市內 37",
      "─┼── ─┼──",
      "個區皆可 面交",
      "只填 台南表示",
      "台南市內37 個區皆可面交",
      "只填台南表示 台南市內37個區皆可面交",
      "2 5",
      "S po",
      "」 ，",
      "─┼ ─┼",
      "涉及金錢 任何",
      "只填台南表示台南市內37個區皆可面交 唷",
      "涉及金錢任何 事務",
      "地 方",
      "避 免",
      "） -",
      "交易 類別",
      "永 康",
      "沒 有",
      "須 為",
      "──── ────",
      "LIN E",
      "不 限",
      "主 標題",
      "天 限一篇",
      "板 友",
      "濫 用",
      "站 內",
      "與 收集類",
      "請 注意",
      "贈 送",
      "違規 者",
      "3C 類",
      "ou t",
      "2 1",
      "] 。",
      "b b",
      "f y",
      "t m",
      "u be",
      "內 文",
      "可 在",
      "家 人",
      "目 前",
      "算 在",
      "附 註",
      "請勿 以",
      "ti fy",
      "Spo tify",
      "須為 台南市內",
      "不限 於",
      "out ube",
      ") :",
      "P re",
      "Y outube",
      "e r",
      "m iu",
      "但 勿",
      "兩 者",
      "報 導",
      "或 內文",
      "更 改",
      "為 附",
      "為 分享",
      "物 交易",
      "等 網路",
      "要 買",
      "要 為分享",
      "試 法",
      "請 推置底文",
      "賣 場",
      "身 試法",
      "進 行",
      "防 詐騙",
      "類 會員",
      "台南 板主",
      "交易 完成",
      "標題 或內文",
      "10 天限一篇",
      "請勿 濫用",
      "違規 會被",
      "二手 物交易",
      "以上 兩者",
      "討論 性質",
      "限定 台南",
      "卡片 與收集類",
      "開放 二手物交易",
      "請注意 台南板主",
      "違規者 會被",
      "可在 標題或內文",
      "算在 3C類",
      "請勿以 身試法",
      "Spotify 等網路",
      "不限於 以上兩者",
      "Pre miu",
      "Youtube Premiu",
      "但勿 更改",
      "為附 屬",
      "要為分享 討論性質",
      "類會員 算在3C類",
      "交易完成 可在標題或內文",
      "違規會被 水桶",
      "開放二手物交易 為附屬",
      "請注意台南板主 要為分享討論性質",
      "Spotify等網路 類會員算在3C類",
      "YoutubePremiu m",
      "交易完成可在標題或內文 附註",
      "請注意台南板主要為分享討論性質 看板",
      "0 7",
      "0 9",
      "2 6",
      "2 9",
      "下 單",
      "主 題",
      "凍 結",
      "加 LINE",
      "台 灣",
      "慎 防詐騙",
      "是 詐騙",
      "歷 史",
      "猖 獗",
      "生 活",
      "禁 止",
      "稱 家人",
      "詳 細",
      "需 加LINE",
      "食 記",
      "in g",
      "詐騙 猖獗",
      "可能 是詐騙",
      "無法 下單",
      "都有 可能是詐騙",
      "站內 信",
      "要買 需加LINE",
      "賣場 凍結",
      "稱家人 要買需加LINE",
      "無法下單 都有可能是詐騙",
      "賣場凍結 無法下單都有可能是詐騙",
      "2 7",
      "o o",
      "文 化",
      "方 式",
      "5 月",
      "h tm",
      "帳 號",
      "調 查",
      "運 動",
      "an g",
      "、 「",
      "」 、「",
      "今 年",
      "停 車",
      "南 市",
      "文 內",
      "林 俊",
      "發 生",
      "自 行",
      "處 理",
      "需 要",
      "- [",
      "h e",
      "o d",
      "合 購",
      "在 台南",
      "安 平",
      "寵 物",
      "政 治",
      "議 員",
      "起 來",
      "鐵 路",
      "鳳 梨",
      "20 20",
      "202 4",
      "發文 分類",
      "2 8",
      "P O",
      "a g",
      "e e",
      "├ ┬",
      "交 換",
      "公 分",
      "打 造",
      "指 出",
      "現 場",
      "發 票",
      "警 方",
      "需 求",
      "交易 文",
      "══ ══",
      "護理 人",
      "林俊 憲",
      "9 9",
      "a r",
      "l i",
      "t o",
      "包 含",
      "參 考",
      "學 生",
      "廣 場",
      "環 境",
      "規 定",
      "徵求 文",
      "-------- --------",
      "l t",
      "s h",
      "— —",
      "中 央",
      "修 改",
      "個 月",
      "刪 文",
      "區 域",
      "台 語",
      "國 小",
      "大 家",
      "安 南區",
      "市 政",
      "情 報",
      "比 照",
      "盡 量",
      "紀 念",
      "請 盡量",
      "進 黨",
      "違 反",
      "台南 報導",
      "3 1",
      "3 6",
      "3 8",
      "4 7",
      "5 5",
      "6 7",
      "7 7",
      "a m",
      "i g",
      "s t",
      "t r",
      "。 （",
      "便 當",
      "健 康",
      "哪 裡",
      "商 品",
      "執 行",
      "展 覽",
      "未 來",
      "視 為",
      "設 計",
      "誤 解",
      "謝 謝",
      "退 文",
      "長 期",
      "關 廟",
      "永康 區",
      "od ay",
      "1 00",
      "2 2",
      "c e",
      "l o",
      "不 同",
      "交 通",
      "回 收",
      "市 民",
      "教 育",
      "於 文內",
      "精 華",
      "自 己",
      "蝦 仁",
      "覆 主題",
      "重 覆主題",
      "陳 亭",
      "板規 1",
      "ne t",
      "避免 誤解",
      "詳細 說明",
      "請盡量 於文內",
      "展覽 室",
      "精華 區",
      "避免誤解 請盡量於文內",
      "避免誤解請盡量於文內 詳細說明",
      "0 1",
      "0 元",
      "4 3",
      ": (",
      "a l",
      "c h",
      "e tt",
      "p tt",
      "一 起",
      "不 少",
      "今 天",
      "周 邊",
      "園 區",
      "城 市",
      "工 作",
      "或 是",
      "持 續",
      "推 薦",
      "揪 團",
      "整 理",
      "民 進黨",
      "爭 取",
      "發 現",
      "累 犯",
      "補 助",
      "酒 駕",
      "重 複",
      "針 對",
      "台南 點",
      "台南市 中西區",
      "88 88",
      "ag e",
      "ett oday",
      "0 2",
      "0 4",
      "0 6",
      "0 8",
      "2 4",
      "7 l",
      "d n",
      "g l",
      "l in",
      "z h",
      "也 是",
      "二 層",
      "以 免",
      "售 價",
      "市 府",
      "店 家",
      "成 功",
      "手 機",
      "政 府",
      "文 學",
      "景 點",
      "條 件",
      "河 樂",
      "為 主",
      "發 表",
      "粉 紅",
      "美 術",
      "自 家",
      "行 為",
      "認 定",
      "謝 禮",
      "路 一",
      "遊 記",
      "閱 讀",
      "駕 駛",
      "── ─",
      "im age",
      "30 天",
      "┴┬┴┬┴┬┴┬ ┴┬┴┬┴┬┴┬",
      "htm l",
      "1 00元",
      "3 3",
      "4 5",
      "P T",
      "i bb",
      "o m",
      "u n",
      "」 。",
      "一 般",
      "下 午",
      "不 會",
      "事 故",
      "住 宿",
      "偉 哲",
      "參 與",
      "地 下",
      "塑 膠",
      "所 有",
      "推 出",
      "旅 局",
      "板 上",
      "民 調",
      "火 車",
      "結 合",
      "行 溪",
      "規 範",
      "觀 旅局",
      "議 會",
      "資 料",
      "質 詢",
      "部 分",
      "集 點",
      "黃 偉哲",
      "2025 05",
      "══ ═",
      "護理 師",
      "卡片 類",
      "─┼─┼ ─┼─┼",
      "lt n",
      "tr l",
      "陳亭 妃",
      "7l 7",
      "二層 行溪",
      "河樂 廣場",
      "PT T",
      "8 7",
      "a s",
      "h o",
      "m y",
      "s e",
      "┌ ─",
      "一 次",
      "上 訴",
      "不 可",
      "中 心",
      "事 件",
      "來 信",
      "個 人",
      "價 格",
      "億 元",
      "優 惠",
      "公 園",
      "分 身",
      "利 用",
      "友 善",
      "天 氣",
      "宣 傳",
      "工 程",
      "得 不",
      "愛 情",
      "感 謝",
      "提 報",
      "方 便",
      "是 否",
      "本 類別",
      "檢 舉",
      "生 態",
      "男 子",
      "職 場",
      "舊 鐵路",
      "芒 果",
      "藝 術",
      "許 多",
      "責 任",
      "近 期",
      "透 過",
      "通 知",
      "進 入",
      "還 有",
      "項 目",
      "202 2",
      "文章 內容",
      "re a",
      "29 6",
      "停車 場",
      "護理人 力",
      "比照 交易文",
      "美術 館",
      "火車 站",
      "舊鐵路 橋",
      "1 號",
      "4 0",
      "4 8",
      "4 月",
      "5 8",
      "B R",
      "f a",
      "w h",
      "┴ ┤",
      "║ ║",
      "一 天",
      "不 到",
      "不 是",
      "中 華",
      "之 後",
      "也 有",
      "人 員",
      "億 載",
      "兒 童",
      "共 同",
      "出 現",
      "分 局",
      "初 選",
      "功 能",
      "務 必",
      "原 則",
      "原 文",
      "回 文",
      "回 饋",
      "城 武",
      "夜 市",
      "威 權",
      "媽 媽",
      "定 期",
      "專 用",
      "就 是",
      "市 場",
      "建 築",
      "影 響",
      "後 續",
      "情 況",
      "情 節",
      "成 為",
      "投 入",
      "故 事",
      "明 年",
      "朋 友",
      "期 間",
      "林 澤",
      "條 款",
      "業 者",
      "法 院",
      "洋 裝",
      "特 色",
      "環 保",
      "產 品",
      "申 訴",
      "相 同",
      "福 壽",
      "竹 筍",
      "綠 能",
      "綠 竹筍",
      "聯 合",
      "股 東",
      "若 有",
      "親 子",
      "計 畫",
      "許 願",
      "請 務必",
      "警 告",
      "超 過",
      "連 結",
      "金 城武",
      "附 近",
      "陳 男",
      "雙 方",
      "， 「",
      "台南 板",
      "20 19",
      "台南市 東區",
      "ur l",
      "水桶 30天",
      "50 47",
      "13 家",
      "─┼───┼── ─┼───┼──",
      "bb s",
      "├┬ ┤",
      "路一 段",
      "┌─ ┐",
      "億載 金城武",
      "林澤 峰",
      "0 公分",
      "2 名",
      "4 6",
      "5 20",
      "6 6",
      "6 00",
      "C C",
      "I D",
      "L in",
      "a t",
      "f r",
      "g oo",
      "j 05",
      "m m",
      "s i",
      "y o",
      "┴ ┼",
      "不 過",
      "以 及",
      "個 百",
      "停 辦",
      "價 值",
      "公 尺",
      "冠 麻",
      "冰 箱",
      "同 一",
      "名 單",
      "哪 邊",
      "單 位",
      "四 機",
      "因 此",
      "夏 日",
      "多 元",
      "安 全",
      "察 官",
      "市 長",
      "店 名",
      "廢 四機",
      "廣 告",
      "強 調",
      "徐 男",
      "意 見",
      "感 覺",
      "成 大",
      "改 善",
      "日 一篇",
      "樓 展覽室",
      "歡 迎",
      "歸 仁",
      "治 療",
      "浪 漫",
      "溝 通",
      "特 定",
      "狀 況",
      "的 人",
      "看 看",
      "空 間",
      "符 合",
      "系 統",
      "聯 單",
      "自 取",
      "與 台南",
      "衛 生",
      "規 劃",
      "規 畫",
      "觀 光",
      "買 賣",
      "購 買",
      "路 與",
      "轉 錄",
      "辦 法",
      "過 程",
      "黑 冠麻",
      "20 日",
      "img po",
      "on e",
      "re url",
      "14 年",
      "en t",
      "紀念 品",
      "fa ce",
      "wh j05",
      "福壽 螺",
      "Lin e",
      "┴┼ ─┼",
      "黑冠麻 鷺",
      "imgpo i",
      "whj05 30",
      "2 23",
      "3 00",
      "6 0",
      "8 月",
      "8 223",
      "S ent",
      "Y Y",
      "a d",
      "l a",
      "t ainan",
      "u s",
      "u dn",
      "一 下",
      "一 個月",
      "不 只",
      "不 得",
      "不 能",
      "不 要",
      "仁 德",
      "例 如",
      "保 留",
      "傳 統",
      "兩 組",
      "出 來",
      "判 決",
      "加 碼",
      "動 置底",
      "南 科",
      "危 險",
      "原 因",
      "口 味",
      "另 外",
      "同 時",
      "同 期",
      "因 為",
      "團 報",
      "完 畢",
      "宣 布",
      "宿 舍",
      "將 不",
      "小 心",
      "市 價",
      "布 置",
      "年 來",
      "廢 棄",
      "手 動置底",
      "提 出",
      "搭 配",
      "支 持",
      "政 策",
      "旅 行",
      "旅 遊",
      "智 慧",
      "有 限",
      "有 點",
      "東 良",
      "林 東良",
      "查 詢",
      "模 式",
      "機 車",
      "檢 察官",
      "法 官",
      "泡 泡",
      "照 片",
      "獎 勵",
      "現 在",
      "疑 慮",
      "發 展",
      "的 地方",
      "真 交易",
      "移 除",
      "米 唐",
      "系 列",
      "經 典",
      "總 質詢",
      "纖 維",
      "罰 金",
      "群 組",
      "臭 青",
      "行 人",
      "認 養",
      "請 見",
      "謝 龍",
      "貼 圖",
      "造 成",
      "選 擇",
      "配 菜",
      "長 榮",
      "台南市 長",
      "台南市 政府",
      "徵求 內容",
      ".. .",
      "記者 林東良",
      "直接 刪文",
      "──────── ────",
      "禁止 項目",
      "關廟 區",
      "重覆主題 徵求文",
      "愛情 許願",
      "BR F",
      "fr om",
      "個百 分",
      "市長 黃偉哲",
      "┴┼─┼ ┴┼─┼",
      "臭青 母",
      "謝龍 介",
      "愛情許願 池",
      "1 館",
      "1 20",
      "3 5",
      "5 6",
      "5 9",
      "5 00元",
      "6 月",
      "7 3",
      "7 4",
      "7 8",
      "K yo",
      "P h",
      "_ 1",
      "b oo",
      "b rea",
      "c n",
      "e si",
      "i e",
      "i x",
      "i am",
      "i Ph",
      "k ing",
      "w u",
      "y u",
      "═ ╤",
      "═ ╪",
      "一 名",
      "一 堆",
      "不 重覆主題",
      "中 午",
      "也 不",
      "他 人",
      "來 看看",
      "便 宜",
      "保 護",
      "假 徵求",
      "停 電",
      "入 場",
      "入 夏",
      "公 所",
      "其 中",
      "加 上",
      "北 區",
      "北 門",
      "南 部",
      "古 蹟",
      "呼 籲",
      "品 價值",
      "善 化",
      "國 民",
      "增 加",
      "女 子",
      "姓 男子",
      "學 校",
      "學 習",
      "安 南",
      "寶 寶",
      "射 精",
      "小 於",
      "小 額",
      "展 示",
      "山 上",
      "市 議員",
      "帶 路",
      "年 度",
      "引 發",
      "意 者",
      "成 長",
      "招 牌",
      "推 動",
      "搜 尋",
      "攝 影",
      "收 成",
      "攻 擊",
      "易 科",
      "時 請",
      "景 觀",
      "最 後",
      "有 人",
      "有 沒有",
      "民 間",
      "水 道",
      "法 規",
      "玉 井",
      "用 品",
      "畫 面",
      "當 時",
      "發 言",
      "百 萬",
      "的 是",
      "的 話",
      "的 徵求文",
      "的 揪團",
      "知 道",
      "社 區",
      "給 予",
      "翻 譯",
      "育 雛",
      "自 由",
      "自 身",
      "與 周邊",
      "被 告",
      "被 害",
      "請 用",
      "請 站內信",
      "請 參考",
      "象 徵",
      "資 源",
      "路 人",
      "路 口",
      "身 體",
      "輕 重",
      "限 台南",
      "隧 道",
      "雙 人",
      "雞 腿",
      "電 動",
      "需 符合",
      "頭 君",
      "館 方",
      "駁 回",
      "魚 頭君",
      "台南 限定",
      "台南 河樂廣場",
      "202 3",
      "台南市 南區",
      "台南市 美術館",
      "2025 年",
      "19 日",
      "發文 者",
      "re esi",
      "88 8",
      "16 8888",
      "en g",
      "50 元",
      "提供 資訊",
      "or y",
      "ou se",
      "南市 議會",
      "he re",
      "安平 區",
      "區域 也",
      "以免 觸",
      "粉紅 球",
      "謝禮 回饋",
      "202505 19",
      "二層行溪 舊鐵路橋",
      "原則 小於",
      "情節 輕重",
      "5047 8",
      "廢四機 回收",
      "過程 中",
      "福壽螺 卵",
      "廢棄 物",
      "關廟區 公所",
      "個百分 點",
      "Kyo to",
      "brea king",
      "iam 168888",
      "iPh one",
      "不重覆主題 的徵求文",
      "假徵求 真交易",
      "品價值 需符合",
      "國民 黨",
      "小額 市價",
      "易科 罰金",
      "水道 博物館",
      "法規 禁止項目",
      "reesi on",
      "謝禮回饋 品價值需符合",
      "原則小於 100元",
      "breaking news",
      "iam168888 888",
      "謝禮回饋品價值需符合 小額市價",
      "1 年",
      "2 人",
      "2 館",
      "4 座",
      "5 7",
      "5 次",
      "6 9",
      "7 j",
      "8 0",
      "C trl",
      "J A",
      "J o",
      "V I",
      "V W",
      "c ar",
      "c trl",
      "g u",
      "h i",
      "h tw",
      "l l",
      "n g",
      "n o",
      "n ig",
      "p p",
      "r i",
      "r r",
      "t s",
      "u a",
      "u c",
      "v e",
      "├ ────",
      "┬ ───",
      "┴ ───",
      "┼ ─┼─┼─┼─┼",
      "┼ ────────────",
      "。 (",
      "一 張",
      "下 得不",
      "不 服",
      "丟 包",
      "享 優惠",
      "人 出",
      "人 力",
      "今 下午",
      "仍 未",
      "以 享優惠",
      "任 務",
      "作 業",
      "作 為",
      "佬 點",
      "信 件",
      "免 費",
      "兒 園",
      "公 仔",
      "公 共",
      "具 體",
      "再 犯",
      "再 發文",
      "初 步",
      "初 犯",
      "剛 好",
      "勿 徵求",
      "勿 假徵求真交易",
      "即 可",
      "即 時",
      "另 一",
      "只 有",
      "可 水桶",
      "台 文",
      "吃 起來",
      "合 併",
      "同 本",
      "咖 啡",
      "回 應",
      "回 答",
      "國 立",
      "基 層",
      "多 次",
      "大 眾",
      "大 量",
      "太 陽",
      "奇 美",
      "女 中",
      "好 心",
      "如 徵",
      "嬰 中心",
      "完 整",
      "家 教",
      "審 理",
      "小 時",
      "尿 布",
      "已 經",
      "幼 兒園",
      "幾 年",
      "強 制",
      "徵 認養",
      "心 得",
      "應 該",
      "或 請",
      "或 中西區",
      "抽 獎",
      "指 南",
      "挑 戰",
      "探 索",
      "措 施",
      "提 問",
      "搶 救",
      "改 用",
      "故 障",
      "新 營",
      "明 區域也",
      "是 一",
      "昱 愷",
      "晚 上",
      "暴 衝",
      "曝 光",
      "書 桌",
      "最 高",
      "林 昱愷",
      "正 常",
      "歷 經",
      "每 人",
      "比 較",
      "浮 雲",
      "海 外",
      "消 防",
      "清 楚",
      "清 水",
      "炎 熱",
      "無 相關",
      "營 利",
      "爬 文",
      "瑞 峰",
      "產 業",
      "申 請",
      "的 一",
      "的 小",
      "的 內容",
      "的 資料",
      "的 朋友",
      "監 執行",
      "目 擊",
      "目 標",
      "相 當",
      "研 究",
      "社 會",
      "種 植",
      "積 極",
      "立 委",
      "等 請",
      "管 理",
      "經 費",
      "聯 名",
      "花 園",
      "若 是",
      "若 文章內容",
      "菜 單",
      "著 可水桶",
      "行 按",
      "衝 撞",
      "裝 置",
      "裝 飾",
      "製 冰",
      "製 成",
      "視 情節輕重",
      "親 水",
      "註 明區域也",
      "認 為",
      "語 言",
      "調 整",
      "請 連",
      "豐 富",
      "贈 品",
      "路 上",
      "路 線",
      "送 醫",
      "這 個",
      "這 裡",
      "週 末",
      "遊 憩",
      "違 著可水桶",
      "適 合",
      "選 人",
      "還 是",
      "醃 製",
      "醫 療",
      "重 大",
      "開 始",
      "降 售",
      "陸 續",
      "雖 然",
      "雞 舍",
      "非 常",
      "音 樂",
      "顯 示",
      "風 險",
      "香 氣",
      "黑 名",
      "台南 地",
      "img us",
      "┴┬┴┬ ┴┬",
      "徵求 交易",
      "徵求 物品",
      "徵求 類別",
      "10 日一篇",
      "板規 8",
      "板主 保護",
      "說明 提供",
      "置底 文",
      "面交地點 請填區名或明顯地標",
      "物品 交換",
      "以上 閱讀",
      "相關 事件",
      "收集類 請",
      ".. ..",
      "博物館 節",
      "─┼───┼── ┼────────────",
      "─┼─┼ ─┼───┼──┼────────────",
      "板友 提供資訊",
      "歷史 博物館",
      "文化 部",
      "文內 說明提供",
      "在台南 板",
      "寵物 徵認養",
      "鐵路 地下",
      "2024 年",
      "PO 在台南板",
      "護理人 員",
      "st ory",
      "推薦 的",
      "條件 與台南",
      "為主 的揪團",
      "方便 板友提供資訊",
      "本類別 為",
      "責任 醫院",
      "通知 直接刪文",
      "威權 象徵",
      "股東 紀念品",
      "請務必 詳閱",
      "水桶30天 以上",
      "冰箱 廢四機回收",
      "夏日 浮雲",
      "特定 相關事件",
      "衛生 局",
      "face boo",
      "Line 群組",
      "一個月 限一篇",
      "完畢 請連",
      "將不 通知直接刪文",
      "旅行 指南",
      "長榮 女中",
      "═╤ ═╤",
      "═╪ ═╪",
      "來看看 近期",
      "入夏 旅行指南",
      "時請 文內說明提供",
      "限台南 特定相關事件",
      "魚頭君 帶路",
      "台南河樂廣場 粉紅球",
      "ouse ll",
      "以免觸 法",
      "法規禁止項目 以免觸法",
      "7j y",
      "car ousell",
      "htw ing",
      "nig htwing",
      "├──── ┼─┼─┼─┼─┼",
      "下得不 夠",
      "人出 借",
      "以享優惠 為主的揪團",
      "勿徵求 法規禁止項目以免觸法",
      "同本 行按",
      "回答 問題",
      "好心 人出借",
      "如徵 Line群組",
      "或請 好心人出借",
      "消防 局",
      "無相關 將不通知直接刪文",
      "等請 改用",
      "若文章內容 條件與台南",
      "視情節輕重 違著可水桶",
      "註明區域也 方便板友提供資訊",
      "徵求物品 時請文內說明提供",
      "板主保護 條款",
      "物品交換 或請好心人出借",
      "以上閱讀 完畢請連",
      "─┼─┼─┼───┼──┼──────────── ┤",
      "鐵路地下 化",
      "faceboo k",
      "限台南特定相關事件 資訊",
      "├────┼─┼─┼─┼─┼ ─┼─┼─┼───┼──┼────────────┤",
      "若文章內容條件與台南 無相關將不通知直接刪文",
      "徵求物品時請文內說明提供 物品交換或請好心人出借",
      "以上閱讀完畢請連 同本行按",
      "( )",
      "1 d",
      "1 樓",
      "1 14",
      "2 處理",
      "3 2",
      "3 9",
      "4 9",
      "4 00",
      "5 y",
      "5 z",
      "5 00",
      "6 1",
      "8 9",
      "A I",
      "A N",
      "E X",
      "S O",
      "S ho",
      "U p",
      "W JA",
      "] ，",
      "a i",
      "a o",
      "b o",
      "d y",
      "e d",
      "e w",
      "h a",
      "h u",
      "m e",
      "p ng",
      "r q",
      "r ts",
      "v er",
      "w WJA",
      "y 2",
      "y an",
      "─ ┤",
      "├ ─┼───┼───┼───┼──",
      "一 座",
      "一 律",
      "一 輛",
      "三 吃",
      "上 午",
      "不 懂",
      "不 治",
      "不 用",
      "不 適",
      "不 涉及金錢",
      "不 知道",
      "久 水桶",
      "予 以",
      "事 長",
      "互 動",
      "人 包",
      "人 物",
      "人 的",
      "什 麼",
      "他 們",
      "代 步",
      "似 乎",
      "但 是",
      "住 地",
      "佳 里",
      "保 障",
      "修 復",
      "做 過",
      "價 位",
      "先 做過",
      "全 案",
      "兩 次",
      "公 司",
      "凌 晨",
      "分 鐘",
      "判 刑",
      "判 斷",
      "到 場",
      "前 往",
      "前 瞻",
      "創 意",
      "功 課",
      "包 括",
      "南 化",
      "原 廠",
      "參 加",
      "及 收集類請",
      "可 愛",
      "可 議",
      "各 式",
      "同 一篇",
      "吸 塵",
      "售 出",
      "問 問題",
      "因 地下",
      "國 際",
      "圖 片",
      "團 隊",
      "團 體",
      "在 地",
      "在 板上",
      "型 車",
      "基 本",
      "基 礎",
      "報 名",
      "多 重",
      "大 樓",
      "失 蹤",
      "姝 琇",
      "嬰 兒",
      "子 三吃",
      "孤 狗",
      "定 古蹟",
      "對 比",
      "導 致",
      "尺 寸",
      "居 住地",
      "山 國小",
      "市 區",
      "市 定古蹟",
      "平 均",
      "年 底",
      "建 立",
      "弁 當",
      "影 像",
      "待 遇",
      "心 臟",
      "應 推置底文",
      "懶 人包",
      "成 新",
      "手 作",
      "才 能",
      "打 開",
      "托 嬰中心",
      "把 參考",
      "掌 握",
      "推 廣",
      "推 車",
      "提 貨",
      "收 納",
      "救 護",
      "教 學",
      "數 卡",
      "施 工",
      "旁 邊",
      "日 起",
      "旺 詮",
      "最 新",
      "最 近",
      "會 理",
      "服 務",
      "本 土",
      "格 紋",
      "槍 殺",
      "樂 園",
      "此 外",
      "步 道",
      "永 久水桶",
      "決 定",
      "清 除",
      "湊 發票",
      "火 警",
      "為 了",
      "無 涉及金錢任何事務",
      "特 別",
      "特 殊",
      "獲 報",
      "王 姝琇",
      "玩 具",
      "甚 至",
      "甜 粽",
      "由 於",
      "留 住",
      "的 外",
      "的 活動",
      "的 物品",
      "的 居住地",
      "看 到",
      "看 起來",
      "真 的",
      "確 定",
      "示 範",
      "社 記者",
      "管 道",
      "範 例",
      "粽 子三吃",
      "結 構",
      "絲 飯",
      "經 濟",
      "綜 合",
      "維 持",
      "網 友",
      "編 號",
      "纜 故障",
      "習 慣",
      "翻 轉",
      "老 師",
      "而 非",
      "肉 絲飯",
      "自 然",
      "與 推文",
      "與 申訴",
      "與 回答問題",
      "興 建",
      "菜 色",
      "萬 顆",
      "處 分",
      "蜂 蜜",
      "裁 定",
      "製 作",
      "西 門",
      "要 求",
      "觀 察",
      "計 劃",
      "記 憶",
      "評 估",
      "詢 問",
      "試 吃",
      "試 用",
      "請 找",
      "請 推",
      "證 據",
      "護 照",
      "讓 人",
      "買 單",
      "費 用",
      "貼 出來",
      "購 入",
      "車 禍",
      "輕 量",
      "辱 罵",
      "農 民",
      "送 往",
      "進 度",
      "選 用",
      "鄉 民",
      "重 新",
      "重 PO",
      "釐 清",
      "長 陳",
      "門 口",
      "開 挖",
      "關 鍵",
      "降 低",
      "雙 層",
      "電 子",
      "電 腦",
      "電 纜故障",
      "靜 置",
      "非 徵求交易",
      "預 計",
      "領 先",
      "風 吹",
      "餐 飲",
      "馬 路",
      "體 驗",
      "高 分",
      "高 雄",
      "） ，",
      "？ (",
      "台南 的",
      "台南 東區",
      "台南 火車站",
      "20 0",
      "20 0元",
      "┴┬ ┴",
      "內容 視為",
      "---- -",
      "---- --",
      "┴┬┴┬ ┤",
      "關於 問問題",
      "違規 文章",
      "15 天",
      "15 年來",
      "3C 產品",
      "12 3",
      "相關 的",
      "問題 的內容",
      "票券 類",
      "13 wWJA",
      "記者 蔡",
      "記者 王姝琇",
      "─┼───┼── ─┤",
      "台灣 文學",
      "台灣 歷史博物館",
      "文化 園區",
      "運動 健康",
      "政治 新聞",
      "---------------- --",
      "---------------- ------",
      "中央 社記者",
      "台語 翻譯",
      "市政 總質詢",
      "lo ad",
      "不同 帳號",
      "教育 局",
      "自己 的",
      "蝦仁 飯",
      "蝦仁 肉絲飯",
      "酒駕 累犯",
      "gl e",
      "認定 方式",
      "謝禮 有限",
      "塑膠 球",
      "卡片類 及收集類請",
      "不可 涉及金錢",
      "不可 重PO",
      "是否 先做過",
      "檢舉 與申訴",
      "職場 環境",
      "比照交易文 1",
      "相同 內容視為",
      "聯合 報",
      "13家 責任醫院",
      "歸仁 區",
      "提出 不懂",
      "發文者 的居住地",
      "關廟區公所 指出",
      "┬─── ┬───",
      "┴─── ┴───",
      "提問 專用",
      "瑞峰 國小",
      "的資料 貼出來",
      "製冰 機",
      "寵物徵認養 等",
      "本類別為 提問專用",
      "5y 9",
      "Sho p",
      "Up load",
      "├─┼───┼───┼───┼── ─┼───┼───┤",
      "吸塵 器",
      "因地下 電纜故障",
      "多重 分身",
      "把參考 的資料貼出來",
      "會理 事長",
      "而非 發文者的居住地",
      "非徵求交易 使用",
      "關於問問題 與回答問題",
      "問題的內容 條件",
      "13wWJA y2",
      "謝禮有限 額",
      "卡片類及收集類請 推置底",
      "是否先做過 功課",
      "檢舉與申訴 辦法",
      "相同內容視為 同一篇",
      "提出不懂 的地方",
      "- >",
      "0 10",
      "1 傷",
      "1 戶",
      "1 18",
      "2 公尺",
      "3 w",
      "3 點",
      "3 樓展覽室",
      "4 2",
      "4 屆",
      "5 1",
      "5 w",
      "5 10",
      "5 ww",
      "6 8",
      "6 99",
      "7 5",
      "7 月",
      "7 ee",
      "8 6",
      "8 日",
      "9 0",
      "9 5",
      ": :",
      "B F",
      "F 碼",
      "H an",
      "J PTT",
      "R K",
      "S K",
      "S t",
      "U B",
      "b K",
      "c k",
      "c dn",
      "d s",
      "d 8223",
      "e t",
      "e x",
      "f or",
      "g o",
      "i i",
      "l e",
      "m ee",
      "n d",
      "o p",
      "p N",
      "p x",
      "r o",
      "s o",
      "v a",
      "w a",
      "w q",
      "w en",
      "w ang",
      "x a",
      "x u",
      "z T",
      "ê 路與",
      "├ ┴┬┴┬",
      "┬ ┴┬",
      "╰ ╮",
      "一 個",
      "一 同",
      "一 步",
      "一 直",
      "一 路",
      "一 分局",
      "七 股",
      "下 的",
      "不 老",
      "不 足",
      "不 錯",
      "中 彈",
      "中 正",
      "中 街",
      "主 菜",
      "主 要",
      "事 人",
      "事 項",
      "二 犯",
      "于 甄",
      "人 數",
      "人 與",
      "仁 華",
      "仍 待",
      "他 板",
      "休 旅",
      "作 品",
      "佮 海",
      "來 說",
      "保 育",
      "修 正",
      "倒 臥",
      "健 身",
      "像 一堆",
      "像 福壽螺卵",
      "儀 館",
      "優 先",
      "光 本",
      "免 稅",
      "入 口",
      "入 監執行",
      "內 參",
      "內 政",
      "全 力",
      "全 線",
      "全 部",
      "兩 件",
      "兩 地",
      "共 有",
      "具 有",
      "再 生",
      "再 利用",
      "冷 氣",
      "出 動",
      "判 處",
      "到 貨",
      "參 選人",
      "受 到",
      "只 是",
      "可 自行",
      "台 電",
      "吃 什麼",
      "合 作",
      "吸 引",
      "呈 現",
      "告 知",
      "品 質",
      "售 電動",
      "啄 木",
      "因 應",
      "地 址",
      "地 震",
      "坡 肉",
      "基 進",
      "報 到",
      "場 域",
      "外 觀",
      "多 少",
      "大 T",
      "大 幅",
      "大 橋",
      "大 道",
      "夫 妻",
      "套 房",
      "女 友",
      "好 地方",
      "如 果",
      "姑 婆",
      "威 脅",
      "學 期",
      "安 排",
      "定 再發文",
      "家 長",
      "實 體",
      "將 持續",
      "專 業",
      "尊 重",
      "尋 其他",
      "對 於",
      "導 覽",
      "小 孩",
      "小 校",
      "小 組",
      "小 啄木",
      "就 業",
      "屬 於",
      "山 頭",
      "山 佮海",
      "市 集",
      "帶 你",
      "帶 走",
      "帶 點",
      "幫 忙",
      "平 台",
      "年 4月",
      "座 位",
      "廂 型車",
      "廟 會",
      "延 托",
      "引 起",
      "很 多",
      "後 再",
      "後 將",
      "後 翻",
      "徒 刑",
      "從 哪邊",
      "必 須",
      "急 救",
      "性 交",
      "性 侵",
      "想 像",
      "意 義",
      "意 識",
      "成 本",
      "成 果",
      "把 關",
      "折 扣",
      "抹 黑",
      "挑 釁",
      "捕 蛇",
      "排 除",
      "提 煉",
      "搶 修",
      "撤 除",
      "據 點",
      "擺 脫",
      "攜 帶",
      "收 錄",
      "改 編",
      "整 體",
      "文 資",
      "料 理",
      "新 橋",
      "新 高",
      "方 案",
      "於 20",
      "旁 的",
      "日 子",
      "春 露",
      "時 代",
      "時 報",
      "會 議",
      "會 贈品",
      "會 水桶30天以上",
      "有 意",
      "有 關",
      "有 使用",
      "有 民眾",
      "有 需要",
      "有 不少",
      "本 文",
      "本 板",
      "本 案",
      "東 坡肉",
      "板 務",
      "林 間",
      "校 區",
      "根 據",
      "此 次",
      "死 1傷",
      "殯 儀館",
      "水 庫",
      "活 膚",
      "消 費",
      "添 加",
      "減 少",
      "滋 潤",
      "炒 蛋",
      "為 限",
      "烏 山頭",
      "焦 屍",
      "營 業",
      "版 規",
      "獲 得",
      "玄 饌",
      "玩 水",
      "理 由",
      "琨 諺",
      "當 下",
      "當 日",
      "當 事人",
      "痕 跡",
      "癲 癇",
      "登 場",
      "發 起",
      "白 河",
      "百 年",
      "的 美",
      "的 感覺",
      "的 範例",
      "直 呼",
      "睡 覺",
      "研 磨",
      "碗 機",
      "禮 盒",
      "科 技",
      "稱 號",
      "空 地",
      "立 即",
      "競 爭",
      "竹 節",
      "第 5次",
      "等 等",
      "精 神",
      "終 於",
      "結 果",
      "統 一",
      "維 護",
      "網 美",
      "緊 急",
      "編 輯",
      "縣 市",
      "繁 衍",
      "翻 車",
      "老 闆",
      "者 水桶",
      "聚 焦",
      "聲 明",
      "肇 事",
      "肥 胖",
      "自 介",
      "自 動",
      "自 負",
      "興 中街",
      "萬 元",
      "萬 于甄",
      "蔡 旺詮",
      "薑 絲",
      "虎 姑婆",
      "蛇 窟",
      "蛇 類",
      "被 丟包",
      "裡 面",
      "視 情況",
      "解 決",
      "評 價",
      "詳 情",
      "談 判",
      "請 標",
      "請 自行",
      "謝 光本",
      "議 程",
      "議 題",
      "販 賣",
      "贊 助",
      "超 級",
      "車 票",
      "車 輛",
      "轉 為",
      "辦 理",
      "農 業",
      "農 藥",
      "近 20",
      "送 出",
      "通 報",
      "連 撞",
      "週 日",
      "過 去",
      "過 山佮海",
      "遺 址",
      "邀 請",
      "郭 男",
      "鄭 琨諺",
      "醬 汁",
      "錢 包",
      "開 幕",
      "開 張",
      "間 店",
      "附 上",
      "陳 仁華",
      "階 段",
      "隨 看",
      "隨 著",
      "隨 點",
      "雙 標題",
      "雜 草",
      "青 春露",
      "願 意",
      "類 的",
      "飼 料",
      "首 店",
      "黑 色",
      "點 數卡",
      "） 、",
      "） 」",
      "） ：",
      "台南 人",
      "台南 板規",
      "台南 安南區",
      "台南 玉井",
      "台南 即時",
      "台南 週末",
      "台南 鐵路地下化",
      "台南 高分",
      "20 00",
      "交易 沒有",
      "202 6",
      "台南市 區",
      "台南市 各式",
      "標題 分類",
      "新聞 網",
      "二手 物品",
      "二手 寵物",
      "18 日",
      "17 時",
      "活動 整理",
      "置底 推文",
      "15 17",
      "14 天",
      "12 5",
      "票券 卡片類",
      "50 天",
      "or t",
      "LIN 9",
      "直接 水桶",
      "Spo rts",
      "──────── ────────",
      "09 8",
      "歷史 建築",
      "文化 局",
      "5月 21",
      "5月 20日",
      "帳號 部",
      "安平 或中西區",
      "政治 人物",
      "打造 台南",
      "════ ════",
      "ar k",
      "li an",
      "學生 宿舍",
      "—— ——",
      "紀念 幣",
      "違反 板規",
      "36 50天",
      "67 1戶",
      "商品 卡",
      "設計 的",
      "設計 粽子三吃",
      "交通 部",
      "教育 大樓",
      "ch en",
      "爭取 文化部",
      "爭取 前瞻",
      "重複 PO",
      "zh ang",
      "成功 請找",
      "手機 隨點",
      "粉紅 泡泡",
      "image s",
      "不會 太",
      "87 5",
      "as px",
      "友善 環境",
      "友善 職場",
      "停車場 的",
      "中華 東",
      "功能 正常",
      "威權 遺址",
      "定期 會",
      "股東 會贈品",
      "520 愛情許願池",
      "60 天",
      "不得 重複PO",
      "仁德 區",
      "同期 新高",
      "宣布 投入",
      "市長黃偉哲 表示",
      "cn a",
      "安南 醫院",
      "展示 教育大樓",
      "山上 花園",
      "意者 站內信",
      "自由 時報",
      "被害 人",
      "台南市南區 興中街",
      "台南市美術館 1館",
      "50478 43",
      "2館 3樓展覽室",
      "4座 立",
      "VI P",
      "今下午 3點",
      "佬點 手作",
      "國立 台灣文學",
      "太陽 能",
      "海外 首店",
      "請務必詳閱 台南板規",
      "冰箱廢四機回收 聯單",
      "5z w",
      "代步 機車",
      "國際 博物館",
      "嬰兒 床",
      "請推 本文",
      "風吹 過山佮海",
      "馬路 睡覺",
      "15年來 同期新高",
      "台灣歷史博物館 展示教育大樓",
      "台語翻譯 ê路與",
      "5y9 k",
      "cdn 2",
      "mee e",
      "不老 松",
      "休旅 車",
      "內參 民調",
      "內政 部",
      "到貨 量",
      "售電動 研磨",
      "定再發文 唷",
      "尋其他 管道",
      "撤除 威權遺址",
      "有使用 痕跡",
      "殯儀館 旁",
      "活膚 霜",
      "烏山頭 水庫",
      "竹節 蟲",
      "第5次 定期會",
      "肥胖 城市",
      "近20 億元",
      "交易沒有 成功請找",
      "手機隨點 隨看",
      "山上花園 水道博物館",
      "佬點手作 弁當",
      "國立台灣文學 館",
      "請務必詳閱台南板規 定再發文唷",
      "馬路睡覺 哥",
      "台語翻譯ê路與 夢",
      "售電動研磨 機",
      "交易沒有成功請找 尋其他管道",
      "& [",
      ") 、",
      "+ [",
      "0 3",
      "1 名",
      "1 萬",
      "1 死1傷",
      "2 S",
      "2 Z",
      "2 時",
      "2 樓展覽室",
      "3 4",
      "3 A",
      "3 K",
      "3 億",
      "3 月",
      "4 1",
      "4 E",
      "4 b",
      "4 t",
      "4 人",
      "4 車",
      "4 50",
      "5 A",
      "5 人",
      "5 度",
      "5 萬",
      "5 46",
      "6 2",
      "6 3",
      "6 車",
      "7 2",
      "7 天",
      "8 4",
      "9 8",
      ": )",
      "? ?",
      "? 」",
      "A 4",
      "A Y",
      "A UB",
      "B 0",
      "B 1",
      "B B",
      "B O",
      "B P",
      "B 尿布",
      "C D",
      "E B",
      "E H",
      "G K",
      "G U",
      "G oo",
      "H M",
      "H i",
      "L D",
      "L Y",
      "L a",
      "N un",
      "N ew",
      "N B尿布",
      "O J",
      "O O",
      "O c",
      "P l",
      "P ix",
      "R CD",
      "R OJ",
      "S T",
      "S Y",
      "S at",
      "T N",
      "T he",
      "U W",
      "U nd",
      "V C",
      "X Q",
      "Y O",
      "Y 09",
      "Z u",
      "] &[",
      "a b",
      "a p",
      "c N",
      "c u",
      "c v",
      "e a",
      "e l",
      "g 8",
      "g b",
      "g m",
      "g s",
      "g z",
      "i be",
      "j u",
      "k o",
      "l iu",
      "m s",
      "n q",
      "n ort",
      "p e",
      "p w",
      "p ig",
      "p ho",
      "q h",
      "q iu",
      "r y",
      "r z",
      "s ou",
      "s ee",
      "t f",
      "u y",
      "v v",
      "w d",
      "x R",
      "x i",
      "y 0",
      "╬ ═══",
      "╭ ╯",
      "》 ，",
      "一 些",
      "一 份",
      "一 併",
      "一 包",
      "一 口",
      "一 審",
      "一 對",
      "一 年",
      "一 條",
      "一 篇文章",
      "一 日一篇",
      "七 龍",
      "三 樣",
      "三 犯",
      "上 的",
      "下 來",
      "下 去",
      "下 載",
      "下 面",
      "不 一",
      "不 介",
      "不 住",
      "不 便",
      "不 再",
      "不 准",
      "不 另",
      "不 吝",
      "不 斷",
      "不 當",
      "不 禁",
      "不 環保",
      "不 買單",
      "且 加",
      "且 違規文章",
      "世 凱",
      "並 非",
      "中 信",
      "中 山",
      "中 式",
      "中 間",
      "中 險",
      "之 一",
      "之 移除",
      "也 要",
      "也 請勿",
      "乳 內",
      "乳 牙",
      "乾 淨",
      "了 幾",
      "了 解",
      "了 一下",
      "二 審",
      "交 叉",
      "交 社",
      "京 都",
      "亮 點",
      "人 口",
      "人 房",
      "仍 下得不夠",
      "代 發",
      "代 碼",
      "代 買",
      "以 內",
      "以 前",
      "以 往",
      "但 不會",
      "住 處",
      "你 要",
      "依 法",
      "依 潔",
      "依 然",
      "便 利",
      "促 進",
      "促 撤除威權遺址",
      "俊 達",
      "俊 鋒",
      "保 存",
      "保 持",
      "信 箱",
      "假 釋",
      "偏 鄉",
      "停 28",
      "側 翻",
      "備 份",
      "傳 出",
      "傳 送",
      "傷 者",
      "傷 重",
      "像 是",
      "儂 衝",
      "億 實",
      "光 澤",
      "內 用",
      "全 台",
      "全 市",
      "全 數",
      "全 校",
      "全 都有",
      "兩 個月",
      "公 路",
      "公 頃",
      "其 餘",
      "兼 顧",
      "再 建",
      "再 麻",
      "凱 旋",
      "出 清",
      "出 處",
      "出 走",
      "出 具體",
      "刀 性侵",
      "分 別",
      "分 校",
      "分 許",
      "切 勿",
      "刊 登",
      "初 衷",
      "判 14年",
      "則 是",
      "剩 餘",
      "創 作",
      "力 求",
      "力 發",
      "加 入",
      "加 重",
      "動 物",
      "動 線",
      "務 站",
      "募 集",
      "北 安",
      "區 處",
      "十 餘",
      "千 萬",
      "午 節",
      "協 助",
      "南 北",
      "卡 儂衝",
      "原 本",
      "去 哪裡",
      "參 觀",
      "口 感",
      "口 67",
      "古 都",
      "只 能",
      "叫 醒",
      "可 見",
      "可 麗",
      "可 使用",
      "可 面交",
      "可 上訴",
      "可 來信",
      "台 史",
      "台 鐵",
      "吃 肉",
      "各 種",
      "合 力",
      "同 樣",
      "同 步",
      "名 檔",
      "名 額",
      "吳 依潔",
      "吳 俊鋒",
      "味 甜粽",
      "咖 波",
      "品 級",
      "哇 喜",
      "哺 乳內",
      "售 聯",
      "售 寵物",
      "問 券",
      "啟 動",
      "善 用",
      "喜 好",
      "喜 歡",
      "單 日",
      "噓 文",
      "嚴 重",
      "回 歸",
      "回 覆",
      "圖 由",
      "圖 膠",
      "團 結",
      "在 河樂廣場",
      "在 下面",
      "地 的",
      "基 進黨",
      "報 價",
      "報 告",
      "壓 券",
      "外 套",
      "外 帶",
      "多 贏",
      "多 項",
      "大 學",
      "大 容",
      "大 戰",
      "大 醫院",
      "天 內",
      "天 然",
      "失 去",
      "套 組",
      "女 嬰",
      "好 吃",
      "如 下",
      "如 有",
      "季 節",
      "學 城",
      "學 府",
      "完 全",
      "官 田",
      "官 網",
      "定 的",
      "家 業者",
      "實 習",
      "實 踐",
      "專 板",
      "尊 爵",
      "尋 找",
      "對 此",
      "小 新",
      "小 里",
      "小 零",
      "就 很",
      "局 處",
      "展 現",
      "山 步道",
      "崙 智慧",
      "已 售出",
      "帆 船",
      "希 望",
      "帶 入",
      "帶 動",
      "幫 助",
      "平 日",
      "年 的",
      "幾 次",
      "幾 的物品",
      "廢 文",
      "彈 性",
      "影 判14年",
      "後 仍",
      "後 站",
      "後 背",
      "徐 裕",
      "從 醃製",
      "復 電",
      "德 章",
      "德 陽",
      "必 要",
      "忍 不住",
      "快 速",
      "怎 麼",
      "性 或",
      "情 緒",
      "惡 狼",
      "想 問",
      "想 換",
      "意 外",
      "意 的",
      "意 寶寶",
      "感 受",
      "懷 疑",
      "或 徵求",
      "或 寵物",
      "手 工",
      "打 卡",
      "批 評",
      "批 像福壽螺卵",
      "技 能",
      "拍 攝",
      "拍 照",
      "拚 選",
      "招 生",
      "拼 接",
      "拼 圖膠",
      "持 刀性侵",
      "指 壓券",
      "按 大T",
      "捕 捉",
      "掀 床",
      "採 用",
      "接 受",
      "接 連",
      "接 高雄",
      "控 制",
      "推 運動健康",
      "換 公仔",
      "撲 滅",
      "擔 任",
      "擬 參選人",
      "攜 手",
      "攜 13家",
      "支 援",
      "收 到",
      "收 費",
      "改 革",
      "政 黨",
      "教 具",
      "教 練",
      "整 合",
      "文 居",
      "文 末",
      "斑 駁",
      "新 樓",
      "新 生",
      "新 的",
      "新 學生宿舍",
      "於 19",
      "於 地方",
      "於 板上",
      "旋 轉",
      "族 健身",
      "日 治",
      "明 亮",
      "星 際",
      "是 美",
      "時 候",
      "時 程",
      "晉 億實",
      "晚 間",
      "景 區",
      "更 新",
      "更 有",
      "曾 俊達",
      "最 大",
      "最 終",
      "有 無",
      "有 線",
      "木 質",
      "未 使用",
      "本 屆",
      "朱 鸝",
      "東 門",
      "東 停28",
      "林 內",
      "果 菜",
      "查 獲",
      "校 舍",
      "校 際",
      "根 本",
      "格 式",
      "案 發",
      "桌 椅",
      "條 例",
      "條 文",
      "棲 地",
      "業 配",
      "標 準",
      "橫 跨",
      "檢 方",
      "檯 燈",
      "權 益",
      "正 式",
      "正 確",
      "正 韓",
      "歷 程",
      "每 日",
      "比 林俊憲",
      "水 果",
      "水 機",
      "水 交社",
      "水 十餘",
      "永 桶",
      "永 續",
      "求 助",
      "汙 染",
      "池 市民",
      "沈 男",
      "沙 崙智慧",
      "河 街",
      "油 膩",
      "法 務站",
      "活 化",
      "流 失",
      "浪 板",
      "海 安",
      "消 暑",
      "清 爽",
      "湯 哥",
      "湯 德章",
      "準 備",
      "滿 意寶寶",
      "漂 亮",
      "漸 炎熱",
      "濱 海",
      "火 勢",
      "火 場",
      "炸 得",
      "烏 龜",
      "烘 碗機",
      "無 罪",
      "無 預",
      "焢 肉",
      "營 運",
      "爸 爸",
      "版 友",
      "版 面",
      "特 展",
      "狀 態",
      "獎 項",
      "玉 山國小",
      "玩 台南",
      "珍 貴",
      "珠 筆",
      "現 代",
      "現 金",
      "理 念",
      "理 想",
      "琺 瑯",
      "環 河街",
      "瓷 自動",
      "甚 者",
      "生 命",
      "產 自",
      "用 到",
      "用 餐",
      "用 規定",
      "用 不到",
      "用 貼圖",
      "男 遭",
      "留 任",
      "留 意",
      "留 言",
      "畢 業",
      "異 議",
      "當 初",
      "當 地",
      "當 然",
      "當 鋪",
      "疑 似",
      "疑 因地下電纜故障",
      "登 記",
      "發 作",
      "的 信",
      "的 實",
      "的 那",
      "的 部",
      "的 風",
      "的 空間",
      "的 疑慮",
      "的 招牌",
      "的 遊憩",
      "的 當鋪",
      "盛 產",
      "直 播",
      "看 完",
      "真 正",
      "眷 村",
      "眼 線",
      "眼 鏡",
      "眼 檯燈",
      "眾 鳥",
      "知 與",
      "矽 藻",
      "研 判",
      "確 切",
      "確 認",
      "福 男",
      "私 下",
      "私 信",
      "科 學城",
      "程 序",
      "穩 定",
      "立 刻",
      "站 起來",
      "童 鞋",
      "童 樂園",
      "端 午節",
      "第 一",
      "第 二",
      "等 人",
      "筱 薇",
      "節 能",
      "築 巢",
      "簽 名檔",
      "紀 錄",
      "給 我",
      "絮 夢",
      "統 計",
      "綠 色",
      "綠 內參民調",
      "缺 口67",
      "美 翻",
      "美 食",
      "翻 4車",
      "而 是",
      "聯 絡",
      "聲 請",
      "能 力",
      "臨 床",
      "自 產自",
      "至 少",
      "至 板上",
      "臺 灣",
      "與 人",
      "與 市民",
      "舉 辦",
      "舊 橋",
      "艦 園區",
      "花 椰",
      "英 文",
      "茹 絮夢",
      "莖 酵",
      "葉 提煉",
      "蔡 筱薇",
      "蘇 福男",
      "融 入",
      "行 兇",
      "行 政",
      "衝 擊",
      "衣 服",
      "衣 櫃",
      "衣 物",
      "衣 洋裝",
      "被 撞",
      "被 輾",
      "被 批像福壽螺卵",
      "製 衣",
      "複 線",
      "要 有",
      "要 吃什麼",
      "要 去哪裡",
      "角 色",
      "記 得",
      "訪 台南",
      "設 備",
      "設 定",
      "設 置",
      "詳 談",
      "認 識",
      "調 味",
      "請 益",
      "請 使用",
      "請 修改",
      "請 大家",
      "請 在下面",
      "請 記得",
      "證 明",
      "護 眼檯燈",
      "讓 民眾",
      "豆 皮",
      "赫 見",
      "超 像一堆",
      "趕 快",
      "趨 勢",
      "跌 倒",
      "距 離",
      "路 旁",
      "路 邊",
      "路 中險",
      "跳 蚤",
      "躺 臥",
      "躺 路中險",
      "車 道",
      "轉 入",
      "轉 貼",
      "近 全新",
      "近 幾年",
      "迪 卡儂衝",
      "逐 漸炎熱",
      "這 種",
      "通 車",
      "通 用規定",
      "連 任",
      "連 續",
      "連 接高雄",
      "週 一",
      "週 六",
      "進 場",
      "進 一步",
      "遊 客",
      "運 河",
      "選 項",
      "還 錄",
      "還 下得不夠",
      "都 會",
      "配 合",
      "酒 後",
      "重 現",
      "重 要",
      "量 後背",
      "金 煌",
      "金 股東紀念品",
      "銀 髮",
      "鋼 珠筆",
      "錯 誤",
      "鐵 鍋",
      "鑄 鐵鍋",
      "門 票",
      "門 號",
      "開 山",
      "閒 聊",
      "防 曬",
      "阿 姨",
      "阿 湯哥",
      "限 制",
      "除 了",
      "陳 姓男子",
      "陶 瓷自動",
      "隨 即",
      "雙 春",
      "雙 軌",
      "雞 肉",
      "雨 還下得不夠",
      "電 影",
      "電 視",
      "電 話",
      "電 咖波",
      "面 對",
      "面 積",
      "響 應",
      "須 知與",
      "領 回",
      "領 股東紀念品",
      "頭 部",
      "類 似",
      "類 型",
      "類 交易",
      "風 味",
      "風 力發",
      "風 景區",
      "風 衣洋裝",
      "食 品級",
      "飯 桌",
      "飲 水機",
      "養 成",
      "餐 會",
      "餵 哺乳內",
      "首 篇",
      "驚 險",
      "體 育",
      "高 度",
      "鳥 類",
      "鳥 會理事長",
      "麻 豆",
      "黨 內",
      "黨 工",
      "黨 部",
      "龍 山",
      "！ 」",
      "） ～",
      "： 「",
      "？ 」",
      "==== =",
      "台南 新",
      "台南 地方",
      "台南 板友",
      "台南 生活",
      "台南 鳳梨",
      "台南 就是",
      "台南 綠竹筍",
      "台南 加碼",
      "台南 水道博物館",
      "台南 最高",
      "台南 衝撞",
      "台南 爭取文化部",
      "台南 區處",
      "台南 推運動健康",
      "台南 運河",
      "台南 黨部",
      "-- -",
      "20 4",
      "202 1",
      "202 9",
      "co ver",
      "im e",
      "an a",
      "an d",
      "an ce",
      "台南市 安南區",
      "台南市 北區",
      "台南市 安平區",
      "台南市 文化局",
      "台南市 仁德區",
      "文章 內",
      "文章 因",
      "文章 代碼",
      "使用 的",
      "內容 較",
      "徵求 冷氣",
      "10 月",
      "10 歲",
      "10 萬顆",
      "19 9",
      "====== =",
      "違規 之",
      "違規 處理",
      "板主 可",
      "板主 群",
      "二手 兒童",
      "二手 代步機車",
      "二手 女嬰",
      "17 日",
      "15 0",
      "12 699",
      "相關 人",
      "相關 特色",
      "it ing",
      "16 日",
      "en 6",
      "發文前 須知與",
      "記者 吳俊鋒",
      "記者 蘇福男",
      "推文 中",
      "ti c",
      "全新 The",
      "23 年",
      "民眾 可",
      "21 登場",
      "er cover",
      "26 公分",
      "台灣 基進",
      "禁止 廣告",
      "詳細 規定",
      "方式 之移除",
      "南市 再建",
      "南市 鳥會理事長",
      "發生 車禍",
      "自行 刪文",
      "自行 判斷",
      "需要 的朋友",
      "政治 宣傳",
      "議員 初選",
      "鳳梨 纖維",
      "ag r",
      "├┬ ┴┬┴",
      "公分 深",
      "公分 高",
      "警方 已",
      "警方 調查",
      "林俊憲 爭取前瞻",
      "包含 時程",
      "---------------- ----------------",
      "sh op",
      "中央 政策",
      "市政 府",
      "違反 7",
      "36 6",
      "55 66",
      "商品 券",
      "未來 將持續",
      "視為 同一",
      "關廟 綠竹筍",
      "關廟 果菜",
      "永康區 671戶",
      "al ance",
      "整理 果",
      "民進黨 台南市長",
      "民進黨 議員初選",
      "台南市中西區 湯德章",
      "zh eng",
      "駕駛 稱",
      "┴┬┴┬┴┬┴┬┴┬┴┬┴┬┴┬ ┴┬┴┬┴┬┴┬┴┬┴┬┴┬┴┬",
      "一般 新聞",
      "觀旅局 表示",
      "集點 類",
      "集點 活動",
      "202505 20",
      "═══ ╬═══",
      "PTT 鄉民",
      "價格 15年來同期新高",
      "優惠 情報",
      "芒果 青",
      "芒果 味甜粽",
      "進入 盛產",
      "護理人力 缺口67",
      "比照交易文 違規",
      "火車站 奇美",
      "║║ ║║",
      "一天 翻4車",
      "中華 路",
      "媽媽 餵哺乳內",
      "綠能 科學城",
      "綠能 相關特色",
      "聯合 新聞網",
      "請務必 選用",
      "CC Y09",
      "同一 個",
      "改善 職場環境",
      "浪漫 的",
      "觀光 產業",
      "轉錄 文章",
      "20日 凌晨",
      "face 大容",
      "黑冠麻鷺 育雛",
      "不只 是",
      "不只 吃肉",
      "保留 首篇",
      "南科 托嬰中心",
      "同時 也",
      "同期 的一",
      "智慧 寶寶",
      "法官 認定",
      "總質詢 5",
      "纖維 製衣",
      "請見 置底文",
      "台南市政府 提供",
      "┴┼─┼┴┼─┼ ┴┼─┼┴┼─┼",
      "73 26",
      "ix xa",
      "中午 12",
      "女子 還錄",
      "成長 書桌",
      "攝影 機",
      "最後 一",
      "畫面 曝",
      "百萬 攜13家",
      "身體 不適",
      "隧道 全線",
      "雙人 推車",
      "2023 年4月",
      "50478 77",
      "國民黨 謝龍介",
      "Jo ie",
      "Jo ii",
      "gu ROJ",
      "ua 4t",
      "仍未 進入盛產",
      "免費 入場",
      "完整 者",
      "小時 內",
      "尿布 檯",
      "強制 治療",
      "強制 性交",
      "應該 是",
      "研究 所",
      "聯名 外套",
      "聯名 鋼珠筆",
      "降售 4",
      "雖然 天氣",
      "雞舍 成新",
      "台南地 院",
      "博物館節 15天",
      "長榮女中 設計粽子三吃",
      "來看看近期 食記",
      "來看看近期 遊記",
      "台南河樂廣場粉紅球 池市民",
      "7jy k",
      "AI 智慧寶寶",
      "SO P",
      "hu ang",
      "上午 4",
      "修復 1",
      "到場 後",
      "可愛 小零",
      "建立 友善環境",
      "心臟 中彈",
      "提貨 券",
      "綜合 報導",
      "編號 幾的物品",
      "翻轉 經典",
      "蜂蜜 芒果味甜粽",
      "西門 路",
      "護照 計畫",
      "費用 曝光",
      "送往 麻豆",
      "長陳 世凱",
      "開挖 完成",
      "關鍵 字",
      "雙層 床",
      "電子 報",
      "餐飲 科",
      "記者蔡 文居",
      "瑞峰國小 明年",
      "118 號",
      "2公尺 臭青母",
      "3w guROJ",
      "Han ibe",
      "for ms",
      "┬┴┬ ┴┤",
      "台電 台南區處",
      "大橋 火車站奇美",
      "大道 1號",
      "女友 目擊",
      "好地方 蝦仁肉絲飯",
      "帶你 玩台南",
      "把關 市政",
      "收錄 精華區",
      "會議 便當",
      "有意 願",
      "癲癇 發作",
      "虎姑婆 的當鋪",
      "連撞 6車",
      "雜草 火警",
      "台南安南區 雞舍成新",
[...]
